<unk>	0
<s>	0
</s>	0
<pad>	0
<sos>	0
<eos>	0
<0x00>	0
<0x01>	0
<0x02>	0
<0x03>	0
<0x04>	0
<0x05>	0
<0x06>	0
<0x07>	0
<0x08>	0
<0x09>	0
<0x0A>	0
<0x0B>	0
<0x0C>	0
<0x0D>	0
<0x0E>	0
<0x0F>	0
<0x10>	0
<0x11>	0
<0x12>	0
<0x13>	0
<0x14>	0
<0x15>	0
<0x16>	0
<0x17>	0
<0x18>	0
<0x19>	0
<0x1A>	0
<0x1B>	0
<0x1C>	0
<0x1D>	0
<0x1E>	0
<0x1F>	0
<0x20>	0
<0x21>	0
<0x22>	0
<0x23>	0
<0x24>	0
<0x25>	0
<0x26>	0
<0x27>	0
<0x28>	0
<0x29>	0
<0x2A>	0
<0x2B>	0
<0x2C>	0
<0x2D>	0
<0x2E>	0
<0x2F>	0
<0x30>	0
<0x31>	0
<0x32>	0
<0x33>	0
<0x34>	0
<0x35>	0
<0x36>	0
<0x37>	0
<0x38>	0
<0x39>	0
<0x3A>	0
<0x3B>	0
<0x3C>	0
<0x3D>	0
<0x3E>	0
<0x3F>	0
<0x40>	0
<0x41>	0
<0x42>	0
<0x43>	0
<0x44>	0
<0x45>	0
<0x46>	0
<0x47>	0
<0x48>	0
<0x49>	0
<0x4A>	0
<0x4B>	0
<0x4C>	0
<0x4D>	0
<0x4E>	0
<0x4F>	0
<0x50>	0
<0x51>	0
<0x52>	0
<0x53>	0
<0x54>	0
<0x55>	0
<0x56>	0
<0x57>	0
<0x58>	0
<0x59>	0
<0x5A>	0
<0x5B>	0
<0x5C>	0
<0x5D>	0
<0x5E>	0
<0x5F>	0
<0x60>	0
<0x61>	0
<0x62>	0
<0x63>	0
<0x64>	0
<0x65>	0
<0x66>	0
<0x67>	0
<0x68>	0
<0x69>	0
<0x6A>	0
<0x6B>	0
<0x6C>	0
<0x6D>	0
<0x6E>	0
<0x6F>	0
<0x70>	0
<0x71>	0
<0x72>	0
<0x73>	0
<0x74>	0
<0x75>	0
<0x76>	0
<0x77>	0
<0x78>	0
<0x79>	0
<0x7A>	0
<0x7B>	0
<0x7C>	0
<0x7D>	0
<0x7E>	0
<0x7F>	0
<0x80>	0
<0x81>	0
<0x82>	0
<0x83>	0
<0x84>	0
<0x85>	0
<0x86>	0
<0x87>	0
<0x88>	0
<0x89>	0
<0x8A>	0
<0x8B>	0
<0x8C>	0
<0x8D>	0
<0x8E>	0
<0x8F>	0
<0x90>	0
<0x91>	0
<0x92>	0
<0x93>	0
<0x94>	0
<0x95>	0
<0x96>	0
<0x97>	0
<0x98>	0
<0x99>	0
<0x9A>	0
<0x9B>	0
<0x9C>	0
<0x9D>	0
<0x9E>	0
<0x9F>	0
<0xA0>	0
<0xA1>	0
<0xA2>	0
<0xA3>	0
<0xA4>	0
<0xA5>	0
<0xA6>	0
<0xA7>	0
<0xA8>	0
<0xA9>	0
<0xAA>	0
<0xAB>	0
<0xAC>	0
<0xAD>	0
<0xAE>	0
<0xAF>	0
<0xB0>	0
<0xB1>	0
<0xB2>	0
<0xB3>	0
<0xB4>	0
<0xB5>	0
<0xB6>	0
<0xB7>	0
<0xB8>	0
<0xB9>	0
<0xBA>	0
<0xBB>	0
<0xBC>	0
<0xBD>	0
<0xBE>	0
<0xBF>	0
<0xC0>	0
<0xC1>	0
<0xC2>	0
<0xC3>	0
<0xC4>	0
<0xC5>	0
<0xC6>	0
<0xC7>	0
<0xC8>	0
<0xC9>	0
<0xCA>	0
<0xCB>	0
<0xCC>	0
<0xCD>	0
<0xCE>	0
<0xCF>	0
<0xD0>	0
<0xD1>	0
<0xD2>	0
<0xD3>	0
<0xD4>	0
<0xD5>	0
<0xD6>	0
<0xD7>	0
<0xD8>	0
<0xD9>	0
<0xDA>	0
<0xDB>	0
<0xDC>	0
<0xDD>	0
<0xDE>	0
<0xDF>	0
<0xE0>	0
<0xE1>	0
<0xE2>	0
<0xE3>	0
<0xE4>	0
<0xE5>	0
<0xE6>	0
<0xE7>	0
<0xE8>	0
<0xE9>	0
<0xEA>	0
<0xEB>	0
<0xEC>	0
<0xED>	0
<0xEE>	0
<0xEF>	0
<0xF0>	0
<0xF1>	0
<0xF2>	0
<0xF3>	0
<0xF4>	0
<0xF5>	0
<0xF6>	0
<0xF7>	0
<0xF8>	0
<0xF9>	0
<0xFA>	0
<0xFB>	0
<0xFC>	0
<0xFD>	0
<0xFE>	0
<0xFF>	0
▁t	-0
▁a	-1
he	-2
in	-3
ou	-4
re	-5
▁s	-6
on	-7
▁w	-8
it	-9
▁c	-10
▁the	-11
er	-12
at	-13
is	-14
▁y	-15
or	-16
▁b	-17
▁f	-18
nd	-19
▁you	-20
▁p	-21
ing	-22
▁m	-23
▁to	-24
ll	-25
▁d	-26
an	-27
▁th	-28
le	-29
▁h	-30
▁I	-31
es	-32
ed	-33
▁g	-34
▁o	-35
en	-36
▁and	-37
▁in	-38
▁n	-39
ar	-40
st	-41
▁l	-42
om	-43
ot	-44
al	-45
▁it	-46
▁is	-47
ic	-48
▁be	-49
ve	-50
▁he	-51
▁T	-52
as	-53
▁for	-54
▁of	-55
▁S	-56
et	-57
ay	-58
ld	-59
▁re	-60
ow	-61
▁e	-62
▁that	-63
ion	-64
▁on	-65
▁i	-66
ly	-67
▁your	-68
ac	-69
id	-70
ut	-71
▁A	-72
▁u	-73
se	-74
am	-75
ith	-76
ke	-77
▁ha	-78
im	-79
ent	-80
ro	-81
▁st	-82
▁with	-83
ver	-84
ould	-85
out	-86
all	-87
▁an	-88
▁can	-89
▁C	-90
ig	-91
▁this	-92
▁H	-93
▁M	-94
ch	-95
..	-96
ra	-97
▁su	-98
▁se	-99
▁W	-100
▁P	-101
▁not	-102
ill	-103
▁sh	-104
ust	-105
▁Y	-106
▁le	-107
▁do	-108
▁have	-109
oo	-110
▁if	-111
ir	-112
one	-113
ce	-114
ad	-115
▁wh	-116
ct	-117
▁as	-118
▁B	-119
▁j	-120
▁at	-121
est	-122
▁get	-123
▁F	-124
ck	-125
▁k	-126
ht	-127
▁or	-128
ally	-129
▁(	-130
pe	-131
▁ne	-132
▁N	-133
ol	-134
▁li	-135
▁G	-136
nt	-137
▁are	-138
ore	-139
ri	-140
▁O	-141
her	-142
il	-143
ome	-144
▁You	-145
▁The	-146
ble	-147
▁out	-148
▁me	-149
▁they	-150
▁D	-151
▁her	-152
op	-153
▁E	-154
▁Th	-155
▁v	-156
ur	-157
**	-158
ag	-159
▁pro	-160
▁my	-161
ers	-162
ation	-163
▁we	-164
ant	-165
▁-	-166
▁con	-167
ight	-168
▁r	-169
ice	-170
ate	-171
au	-172
▁ch	-173
ort	-174
▁was	-175
ss	-176
▁L	-177
▁If	-178
ake	-179
▁all	-180
▁so	-181
▁la	-182
▁will	-183
▁she	-184
pp	-185
qu	-186
rom	-187
▁go	-188
▁any	-189
▁just	-190
▁com	-191
▁de	-192
ard	-193
um	-194
▁but	-195
▁don	-196
▁them	-197
▁|	-198
▁would	-199
ree	-200
un	-201
gal	-202
od	-203
ity	-204
ink	-205
▁ex	-206
▁some	-207
ive	-208
▁him	-209
▁law	-210
ack	-211
▁:	-212
▁St	-213
fe	-214
ile	-215
▁tr	-216
▁"	-217
ter	-218
▁po	-219
ind	-220
▁ab	-221
▁from	-222
ream	-223
ell	-224
us	-225
▁U	-226
very	-227
▁It	-228
ob	-229
▁wor	-230
▁there	-231
ase	-232
ment	-233
▁want	-234
hing	-235
ul	-236
act	-237
▁should	-238
are	-239
end	-240
▁ra	-241
▁like	-242
▁R	-243
▁whe	-244
▁up	-245
ide	-246
ist	-247
ire	-248
ine	-249
▁al	-250
▁more	-251
art	-252
▁int	-253
em	-254
▁one	-255
▁need	-256
our	-257
if	-258
▁sex	-259
▁He	-260
▁his	-261
▁off	-262
ud	-263
ak	-264
▁kn	-265
▁what	-266
ain	-267
uck	-268
▁**	-269
ail	-270
ood	-271
uy	-272
▁here	-273
ear	-274
▁ad	-275
pt	-276
▁has	-277
▁ag	-278
▁about	-279
atch	-280
...	-281
ime	-282
ess	-283
ie	-284
ast	-285
ther	-286
ick	-287
▁no	-288
lf	-289
▁know	-290
oney	-291
▁legal	-292
▁*	-293
iv	-294
▁work	-295
ER	-296
ab	-297
▁ev	-298
ook	-299
▁pl	-300
per	-301
os	-302
▁now	-303
age	-304
able	-305
▁money	-306
▁free	-307
▁che	-308
ound	-309
▁us	-310
ous	-311
and	-312
ry	-313
▁then	-314
reat	-315
▁comp	-316
lo	-317
be	-318
▁way	-319
ite	-320
▁pre	-321
▁Stream	-322
▁call	-323
▁qu	-324
ge	-325
▁sa	-326
▁pe	-327
ost	-328
▁could	-329
ure	-330
▁This	-331
lp	-332
own	-333
▁who	-334
ild	-335
ount	-336
li	-337
▁That	-338
rest	-339
oug	-340
ame	-341
ue	-342
way	-343
▁take	-344
▁ass	-345
▁right	-346
▁than	-347
ace	-348
▁say	-349
▁make	-350
▁year	-351
▁>	-352
▁ac	-353
▁did	-354
▁SD	-355
▁when	-356
▁by	-357
▁un	-358
▁pay	-359
▁other	-360
▁pr	-361
ause	-362
obile	-363
ans	-364
--	-365
ople	-366
▁gir	-367
▁am	-368
▁lo	-369
ong	-370
▁$	-371
ci	-372
ated	-373
ual	-374
▁time	-375
▁ar	-376
lle	-377
ough	-378
self	-379
▁help	-380
▁their	-381
ff	-382
▁check	-383
▁per	-384
▁J	-385
cause	-386
el	-387
ep	-388
▁think	-389
▁pol	-390
▁.	-391
▁over	-392
▁find	-393
▁cont	-394
▁fuck	-395
ance	-396
ety	-397
▁back	-398
ass	-399
ole	-400
int	-401
ip	-402
▁Mobile	-403
og	-404
th	-405
▁people	-406
ap	-407
ions	-408
▁every	-409
riend	-410
▁down	-411
red	-412
▁ro	-413
ies	-414
▁child	-415
▁cons	-416
▁because	-417
vice	-418
▁being	-419
▁We	-420
▁ser	-421
▁rape	-422
▁inte	-423
ons	-424
▁And	-425
▁watch	-426
▁going	-427
ect	-428
▁someone	-429
ave	-430
▁man	-431
▁only	-432
iz	-433
▁cr	-434
▁does	-435
▁tell	-436
▁cl	-437
▁see	-438
thing	-439
▁ke	-440
▁pers	-441
▁interest	-442
NG	-443
▁sure	-444
yer	-445
▁girl	-446
HD	-447
ode	-448
ull	-449
▁V	-450
▁leg	-451
ank	-452
fore	-453
▁They	-454
▁guy	-455
▁K	-456
▁act	-457
▁look	-458
iss	-459
ious	-460
LI	-461
orn	-462
av	-463
bs	-464
▁en	-465
ible	-466
ings	-467
▁best	-468
▁But	-469
▁police	-470
▁att	-471
▁how	-472
▁even	-473
▁,	-474
▁link	-475
▁good	-476
▁spe	-477
▁dis	-478
ict	-479
ually	-480
▁give	-481
▁rep	-482
oot	-483
▁ow	-484
line	-485
pport	-486
▁been	-487
▁ille	-488
ign	-489
ating	-490
▁fe	-491
▁mu	-492
irst	-493
lt	-494
RE	-495
ord	-496
▁NO	-497
▁acc	-498
▁may	-499
ily	-500
▁af	-501
▁before	-502
ex	-503
aug	-504
so	-505
ump	-506
▁were	-507
ise	-508
▁put	-509
▁und	-510
ber	-511
▁had	-512
▁rem	-513
ens	-514
▁really	-515
ov	-516
▁case	-517
ia	-518
ng	-519
▁much	-520
less	-521
▁its	-522
other	-523
olog	-524
▁inf	-525
ND	-526
iting	-527
itt	-528
▁new	-529
....	-530
▁part	-531
▁lawyer	-532
▁Wh	-533
▁co	-534
▁pat	-535
ology	-536
▁illegal	-537
ES	-538
HE	-539
▁post	-540
▁Is	-541
▁em	-542
▁Com	-543
▁Get	-544
ence	-545
▁rec	-546
▁let	-547
▁No	-548
lease	-549
▁prob	-550
▁In	-551
▁reg	-552
▁anything	-553
▁show	-554
▁person	-555
ax	-556
▁use	-557
arn	-558
▁US	-559
▁sue	-560
ang	-561
aught	-562
mm	-563
▁ins	-564
▁most	-565
▁got	-566
▁rap	-567
▁support	-568
itch	-569
▁into	-570
▁again	-571
ah	-572
▁wr	-573
ably	-574
▁ph	-575
etym	-576
etymology	-577
!!	-578
▁My	-579
▁under	-580
▁sp	-581
▁vide	-582
▁try	-583
▁dr	-584
▁cour	-585
▁after	-586
ault	-587
▁own	-588
▁cop	-589
▁Comp	-590
▁said	-591
▁HD	-592
▁day	-593
▁tw	-594
▁well	-595
>>	-596
ys	-597
▁On	-598
ady	-599
ool	-600
▁laws	-601
▁yourself	-602
▁/	-603
ress	-604
▁requ	-605
▁sell	-606
▁%	-607
▁char	-608
▁sl	-609
▁our	-610
ert	-611
▁sub	-612
ren	-613
▁contact	-614
ern	-615
mon	-616
▁sc	-617
▁inst	-618
▁very	-619
▁point	-620
▁Tr	-621
▁bl	-622
omet	-623
▁first	-624
▁inv	-625
▁these	-626
ish	-627
▁too	-628
iously	-629
▁might	-630
▁somet	-631
OU	-632
▁Q	-633
der	-634
dit	-635
ose	-636
ult	-637
▁app	-638
arent	-639
▁kill	-640
erm	-641
▁So	-642
ty	-643
ary	-644
▁PM	-645
ait	-646
▁res	-647
▁real	-648
▁probably	-649
sh	-650
▁op	-651
ates	-652
▁bet	-653
▁where	-654
ory	-655
▁sec	-656
▁won	-657
▁prot	-658
ced	-659
fect	-660
▁ret	-661
▁Whe	-662
▁stop	-663
▁advice	-664
▁friend	-665
▁There	-666
▁require	-667
ON	-668
tv	-669
▁OP	-670
alk	-671
▁prov	-672
▁court	-673
ich	-674
▁Just	-675
▁without	-676
▁car	-677
ade	-678
de	-679
ody	-680
ards	-681
any	-682
ting	-683
▁isn	-684
▁Sh	-685
▁Yes	-686
▁job	-687
▁life	-688
▁legally	-689
▁Re	-690
▁page	-691
▁video	-692
co	-693
ouse	-694
▁years	-695
▁Can	-696
▁thr	-697
round	-698
oy	-699
ond	-700
ical	-701
▁tax	-702
▁comm	-703
▁hand	-704
▁doesn	-705
▁something	-706
up	-707
▁old	-708
ib	-709
ann	-710
ful	-711
rent	-712
▁buy	-713
ither	-714
▁&	-715
igh	-716
ved	-717
▁Po	-718
▁Not	-719
▁didn	-720
▁start	-721
▁trans	-722
ram	-723
urance	-724
▁pu	-725
BI	-726
ows	-727
▁te	-728
ills	-729
▁also	-730
uff	-731
▁house	-732
▁Compat	-733
orm	-734
▁code	-735
▁leave	-736
▁using	-737
ude	-738
aking	-739
▁state	-740
▁online	-741
▁stream	-742
▁dec	-743
▁ext	-744
▁interesting	-745
DS	-746
ash	-747
akes	-748
▁tra	-749
▁shoot	-750
▁why	-751
▁site	-752
▁report	-753
AM	-754
▁When	-755
▁play	-756
ft	-757
cial	-758
pend	-759
▁offer	-760
▁assault	-761
ics	-762
isit	-763
▁bel	-764
▁tri	-765
ically	-766
LE	-767
pl	-768
cri	-769
▁lot	-770
▁shit	-771
▁Ad	-772
ince	-773
▁cle	-774
ner	-775
▁gu	-776
rand	-777
▁parent	-778
its	-779
▁Oh	-780
ention	-781
▁insurance	-782
we	-783
fer	-784
▁Do	-785
vers	-786
▁ADS	-787
▁ask	-788
▁cou	-789
ple	-790
ving	-791
▁bit	-792
kemon	-793
▁ob	-794
▁inc	-795
▁able	-796
▁quest	-797
ret	-798
▁Go	-799
aily	-800
RO	-801
ach	-802
let	-803
▁Don	-804
▁fin	-805
▁Free	-806
▁come	-807
▁hard	-808
▁count	-809
isk	-810
▁Al	-811
▁br	-812
ma	-813
▁away	-814
uality	-815
▁great	-816
▁things	-817
ING	-818
air	-819
imes	-820
▁keep	-821
▁Quality	-822
TE	-823
ey	-824
che	-825
▁Or	-826
ember	-827
ption	-828
▁which	-829
SH	-830
ove	-831
▁vi	-832
ways	-833
▁bot	-834
▁med	-835
▁mov	-836
ution	-837
▁Trump	-838
▁stole	-839
).	-840
▁YES	-841
▁same	-842
ug	-843
▁=	-844
ars	-845
lic	-846
ations	-847
▁anyone	-848
IN	-849
▁ent	-850
▁mon	-851
▁needs	-852
ames	-853
ents	-854
▁wom	-855
▁protect	-856
me	-857
ial	-858
▁TO	-859
ense	-860
▁bas	-861
▁kid	-862
▁Here	-863
▁least	-864
aughter	-865
▁fucking	-866
pos	-867
rap	-868
ittle	-869
▁must	-870
▁Ty	-871
▁sm	-872
ular	-873
▁rel	-874
▁made	-875
▁company	-876
fin	-877
ied	-878
▁De	-879
inal	-880
▁add	-881
▁min	-882
ality	-883
▁feel	-884
▁place	-885
▁while	-886
▁always	-887
orce	-888
ately	-889
ather	-890
bsite	-891
▁done	-892
▁risk	-893
▁Please	-894
▁account	-895
▁Compatible	-896
▁:)	-897
ater	-898
load	-899
miss	-900
▁HER	-901
ready	-902
▁What	-903
▁attorn	-904
▁^	-905
led	-906
agram	-907
▁guys	-908
▁poss	-909
▁allow	-910
▁already	-911
▁^^	-912
aves	-913
▁care	-914
▁fact	-915
▁keys	-916
▁trust	-917
▁attorney	-918
AS	-919
TH	-920
▁id	-921
ject	-922
▁interested	-923
pect	-924
▁For	-925
▁May	-926
rande	-927
▁cert	-928
▁disc	-929
▁sign	-930
▁talk	-931
▁told	-932
viously	-933
▁eas	-934
▁clear	-935
▁still	-936
not	-937
ction	-938
▁Watch	-939
anc	-940
ize	-941
joy	-942
▁She	-943
▁imm	-944
▁unt	-945
▁cops	-946
▁charg	-947
▁email	-948
▁never	-949
▁remember	-950
LL	-951
urn	-952
▁giv	-953
▁val	-954
▁thing	-955
▁visit	-956
▁against	-957
▁instagram	-958
of	-959
aim	-960
ors	-961
▁Ne	-962
anks	-963
▁THE	-964
▁iss	-965
▁prom	-966
▁reas	-967
▁movie	-968
▁since	-969
▁little	-970
CK	-971
▁set	-972
▁better	-973
▁rights	-974
▁Le	-975
fort	-976
▁ENG	-977
▁dog	-978
▁high	-979
▁used	-980
▁arrest	-981
▁through	-982
empt	-983
ices	-984
▁gen	-985
daily	-986
▁Over	-987
▁crime	-988
dailyetymology	-989
▁div	-990
▁sim	-991
eth	-992
oll	-993
▁open	-994
▁either	-995
▁Pokemon	-996
▁Streams	-997
▁!	-998
ark	-999
cal	-1000
ely	-1001
▁MO	-1002
▁run	-1003
▁yes	-1004
ility	-1005
▁works	-1006
▁another	-1007
▁As	-1008
▁Eng	-1009
▁bus	-1010
▁actually	-1011
to	-1012
▁An	-1013
▁av	-1014
iness	-1015
▁stud	-1016
▁such	-1017
▁wanted	-1018
▁etymology	-1019
ems	-1020
▁Ch	-1021
▁Now	-1022
▁Sell	-1023
▁earn	-1024
▁ever	-1025
▁resp	-1026
▁doing	-1027
▁found	-1028
▁business	-1029
AN	-1030
TRE	-1031
ific	-1032
▁USA	-1033
▁cash	-1034
▁Tyrande	-1035
eah	-1036
ange	-1037
▁dam	-1038
▁red	-1039
llars	-1040
▁live	-1041
▁claim	-1042
▁issue	-1043
▁wrong	-1044
omm	-1045
▁IT	-1046
▁aw	-1047
blem	-1048
▁det	-1049
▁bank	-1050
▁read	-1051
▁sound	-1052
▁trying	-1053
▁divorce	-1054
▁dollars	-1055
acy	-1056
heck	-1057
▁pun	-1058
▁file	-1059
▁hack	-1060
▁happ	-1061
▁road	-1062
▁wait	-1063
▁Maybe	-1064
▁class	-1065
▁those	-1066
▁problem	-1067
oma	-1068
ists	-1069
▁How	-1070
▁Mes	-1071
▁des	-1072
▁pret	-1073
▁order	-1074
▁quick	-1075
▁threat	-1076
▁selling	-1077
az	-1078
arch	-1079
▁Its	-1080
▁bre	-1081
▁sol	-1082
▁cool	-1083
▁fire	-1084
▁Con	-1085
irect	-1086
▁card	-1087
▁long	-1088
▁nothing	-1089
LIT	-1090
▁Wr	-1091
▁im	-1092
----	-1093
ider	-1094
lish	-1095
▁fam	-1096
▁pri	-1097
▁sit	-1098
▁term	-1099
ays	-1100
res	-1101
idence	-1102
▁children	-1103
▁Pro	-1104
▁once	-1105
▁send	-1106
▁allowed	-1107
▁BF	-1108
cess	-1109
TREAM	-1110
▁MOBI	-1111
▁Well	-1112
▁With	-1113
▁amount	-1114
▁download	-1115
▁At	-1116
stit	-1117
▁fra	-1118
▁agree	-1119
▁stuff	-1120
▁super	-1121
▁enough	-1122
▁website	-1123
chn	-1124
▁el	-1125
▁SHE	-1126
▁YOU	-1127
▁fun	-1128
▁love	-1129
indows	-1130
▁record	-1131
gle	-1132
▁dif	-1133
▁dude	-1134
▁states	-1135
▁twitch	-1136
io	-1137
ts	-1138
▁'	-1139
ins	-1140
▁Ex	-1141
▁Un	-1142
▁end	-1143
▁crim	-1144
▁test	-1145
▁saying	-1146
gg	-1147
ks	-1148
ron	-1149
wer	-1150
▁ru	-1151
aper	-1152
ched	-1153
othe	-1154
▁cod	-1155
▁phot	-1156
▁belie	-1157
▁diffe	-1158
▁proper	-1159
▁provide	-1160
eal	-1161
lioma	-1162
▁full	-1163
▁kind	-1164
▁many	-1165
▁wants	-1166
▁reason	-1167
▁Mesothe	-1168
▁quality	-1169
▁criminal	-1170
▁Mesothelioma	-1171
▁Sp	-1172
▁sur	-1173
▁Your	-1174
▁thre	-1175
▁fraud	-1176
▁direct	-1177
▁please	-1178
▁daughter	-1179
▁everyone	-1180
CH	-1181
les	-1182
▁$.	-1183
with	-1184
ident	-1185
▁mean	-1186
lfriend	-1187
▁property	-1188
ife	-1189
nacy	-1190
▁har	-1191
▁pur	-1192
▁unc	-1193
▁suic	-1194
▁called	-1195
▁inform	-1196
▁question	-1197
▁bad	-1198
▁both	-1199
▁cust	-1200
▁deal	-1201
▁sett	-1202
▁chang	-1203
▁exper	-1204
▁young	-1205
▁family	-1206
▁reddit	-1207
amp	-1208
bit	-1209
unk	-1210
ves	-1211
▁Why	-1212
▁men	-1213
uring	-1214
urity	-1215
▁Live	-1216
▁info	-1217
▁kick	-1218
▁miss	-1219
▁name	-1220
avesex	-1221
withme	-1222
▁stand	-1223
avesexwithme	-1224
ru	-1225
▁bo	-1226
▁sw	-1227
ivil	-1228
▁far	-1229
vices	-1230
▁food	-1231
▁security	-1232
ork	-1233
▁Try	-1234
▁ind	-1235
ified	-1236
ments	-1237
▁home	-1238
mission	-1239
▁consent	-1240
▁)	-1241
the	-1242
▁gr	-1243
ever	-1244
▁arg	-1245
▁opt	-1246
▁pub	-1247
▁forg	-1248
▁perm	-1249
▁inter	-1250
▁maybe	-1251
GG	-1252
pr	-1253
toi	-1254
▁GG	-1255
▁ty	-1256
LISH	-1257
lays	-1258
mand	-1259
▁age	-1260
▁list	-1261
▁situ	-1262
▁Every	-1263
▁ground	-1264
▁getting	-1265
pal	-1266
▁GO	-1267
▁ho	-1268
aceb	-1269
itiz	-1270
▁Ser	-1271
▁kar	-1272
oogle	-1273
▁room	-1274
fectly	-1275
▁makes	-1276
▁techn	-1277
▁until	-1278
acebook	-1279
▁within	-1280
▁address	-1281
AW	-1282
ec	-1283
ike	-1284
raw	-1285
uth	-1286
▁Fast	-1287
▁dont	-1288
▁priv	-1289
▁spend	-1290
VER	-1291
app	-1292
ify	-1293
und	-1294
unt	-1295
▁Be	-1296
▁Br	-1297
▁days	-1298
▁Check	-1299
▁treat	-1300
▁Thanks	-1301
........	-1302
▁English	-1303
▁certain	-1304
▁country	-1305
stitution	-1306
▁Overlays	-1307
IC	-1308
raph	-1309
▁...	-1310
▁Hey	-1311
▁bull	-1312
▁head	-1313
ortion	-1314
▁comes	-1315
▁times	-1316
ailable	-1317
▁STREAM	-1318
▁regular	-1319
xt	-1320
ITH	-1321
day	-1322
plo	-1323
you	-1324
▁To	-1325
ract	-1326
▁pos	-1327
cribe	-1328
▁Also	-1329
▁fair	-1330
▁next	-1331
▁pres	-1332
▁story	-1333
▁father	-1334
▁having	-1335
▁thread	-1336
▁suicide	-1337
▁girlfriend	-1338
VE	-1339
ale	-1340
▁wa	-1341
ross	-1342
▁bon	-1343
▁num	-1344
▁Code	-1345
▁Good	-1346
▁Send	-1347
▁viol	-1348
▁word	-1349
▁local	-1350
▁invest	-1351
▁Selling	-1352
▁attempt	-1353
GH	-1354
eral	-1355
reed	-1356
▁mar	-1357
▁jail	-1358
ommend	-1359
▁month	-1360
▁unless	-1361
▁Writing	-1362
▁complet	-1363
▁watching	-1364
▁different	-1365
▁recommend	-1366
OM	-1367
gin	-1368
itn	-1369
orts	-1370
ries	-1371
▁Any	-1372
▁CON	-1373
▁hur	-1374
ering	-1375
ggest	-1376
▁codes	-1377
▁knows	-1378
▁tried	-1379
▁ENGLISH	-1380
▁suggest	-1381
ung	-1382
▁WH	-1383
fety	-1384
mail	-1385
osed	-1386
▁All	-1387
▁LAW	-1388
▁ans	-1389
LITCH	-1390
unity	-1391
▁Tell	-1392
▁Then	-1393
▁area	-1394
▁gets	-1395
ession	-1396
ground	-1397
▁Canad	-1398
▁drink	-1399
▁karma	-1400
▁means	-1401
▁whole	-1402
ardless	-1403
bscribe	-1404
▁GLITCH	-1405
▁though	-1406
▁patched	-1407
▁service	-1408
IGH	-1409
ury	-1410
uts	-1411
bate	-1412
ilar	-1413
ship	-1414
ffect	-1415
ource	-1416
wards	-1417
▁beat	-1418
▁dick	-1419
▁less	-1420
▁finan	-1421
▁notice	-1422
▁Windows	-1423
▁agreement	-1424
ets	-1425
uge	-1426
ven	-1427
▁Pl	-1428
alth	-1429
lium	-1430
rain	-1431
▁bro	-1432
ition	-1433
▁Yeah	-1434
▁fine	-1435
▁hole	-1436
▁nice	-1437
▁stab	-1438
▁based	-1439
▁share	-1440
▁believe	-1441
▁situation	-1442
OP	-1443
aps	-1444
▁//	-1445
▁ur	-1446
ages	-1447
ized	-1448
▁AND	-1449
▁FRE	-1450
▁few	-1451
chool	-1452
ities	-1453
▁body	-1454
▁meth	-1455
▁First	-1456
ibility	-1457
▁financial	-1458
IS	-1459
OR	-1460
!!!	-1461
fit	-1462
roid	-1463
▁dri	-1464
▁hit	-1465
▁Best	-1466
▁WITH	-1467
▁line	-1468
▁offic	-1469
▁valid	-1470
▁woman	-1471
▁anyway	-1472
▁giving	-1473
▁health	-1474
▁making	-1475
▁points	-1476
▁parents	-1477
▁perfectly	-1478
CE	-1479
▁+	-1480
ube	-1481
▁big	-1482
▁drug	-1483
▁invol	-1484
▁around	-1485
▁method	-1486
▁rapist	-1487
na	-1488
ush	-1489
▁--	-1490
IGHT	-1491
cept	-1492
onna	-1493
vern	-1494
▁gra	-1495
right	-1496
▁amaz	-1497
▁pict	-1498
▁true	-1499
▁RIGHT	-1500
▁event	-1501
▁price	-1502
▁govern	-1503
▁picture	-1504
▁working	-1505
▁government	-1506
OT	-1507
iag	-1508
▁bu	-1509
back	-1510
▁board	-1511
▁gonna	-1512
▁small	-1513
▁caught	-1514
▁likely	-1515
▁Android	-1516
▁evidence	-1517
▁possible	-1518
▁information	-1519
FF	-1520
ina	-1521
▁Ac	-1522
earn	-1523
▁dou	-1524
▁low	-1525
▁Learn	-1526
▁citiz	-1527
▁civil	-1528
▁drunk	-1529
▁entire	-1530
▁indust	-1531
▁number	-1532
▁sounds	-1533
▁amazing	-1534
▁charges	-1535
▁Facebook	-1536
do	-1537
du	-1538
--|	-1539
ath	-1540
ipp	-1541
rop	-1542
ctor	-1543
ined	-1544
▁den	-1545
▁equ	-1546
▁else	-1547
▁kids	-1548
▁mess	-1549
▁rest	-1550
▁extra	-1551
▁press	-1552
▁water	-1553
▁depend	-1554
▁paypal	-1555
▁raping	-1556
ensation	-1557
▁talking	-1558
▁therein	-1559
▁required	-1560
avesexwithmeh	-1561
ze	-1562
▁sk	-1563
▁vs	-1564
ails	-1565
most	-1566
ster	-1567
ully	-1568
▁New	-1569
▁cat	-1570
▁pow	-1571
▁ref	-1572
▁face	-1573
▁build	-1574
▁emplo	-1575
▁exact	-1576
▁Should	-1577
▁almost	-1578
▁harass	-1579
bt	-1580
cod	-1581
▁La	-1582
▁Us	-1583
▁es	-1584
upid	-1585
▁Dis	-1586
▁wee	-1587
annel	-1588
ictim	-1589
▁Gold	-1590
▁land	-1591
▁puss	-1592
▁spec	-1593
▁stat	-1594
▁wife	-1595
codone	-1596
▁medic	-1597
▁night	-1598
▁takes	-1599
▁bullet	-1600
▁effect	-1601
▁related	-1602
▁background	-1603
ox	-1604
ian	-1605
umb	-1606
▁MA	-1607
▁PC	-1608
aces	-1609
best	-1610
ison	-1611
▁lay	-1612
▁lit	-1613
▁conv	-1614
▁dead	-1615
▁mail	-1616
posure	-1617
ration	-1618
▁fault	-1619
▁stopp	-1620
▁women	-1621
▁happen	-1622
▁myself	-1623
▁retard	-1624
▁stupid	-1625
▁victim	-1626
▁comment	-1627
▁underst	-1628
▁consider	-1629
▁available	-1630
▁obviously	-1631
aid	-1632
▁cam	-1633
▁cli	-1634
▁str	-1635
ience	-1636
▁shot	-1637
bestos	-1638
▁bonus	-1639
▁seems	-1640
▁today	-1641
ception	-1642
▁during	-1643
▁herein	-1644
▁beating	-1645
▁asbestos	-1646
NY	-1647
aby	-1648
erg	-1649
▁FU	-1650
ases	-1651
ured	-1652
▁App	-1653
▁Leg	-1654
▁cur	-1655
▁gif	-1656
ative	-1657
plant	-1658
▁door	-1659
▁each	-1660
▁bitch	-1661
▁colle	-1662
▁cover	-1663
▁lawsu	-1664
▁Canada	-1665
fortable	-1666
▁looking	-1667
▁usually	-1668
▁whether	-1669
▁transplant	-1670
CT	-1671
oc	-1672
▁X	-1673
bed	-1674
ces	-1675
edi	-1676
lor	-1677
▁Am	-1678
ides	-1679
▁vag	-1680
ollow	-1681
▁Aust	-1682
▁goes	-1683
▁mist	-1684
▁legit	-1685
▁looks	-1686
▁party	-1687
▁raped	-1688
▁cannot	-1689
▁prison	-1690
▁officer	-1691
NT	-1692
▁<	-1693
aut	-1694
ism	-1695
▁Af	-1696
▁ok	-1697
come	-1698
lock	-1699
lose	-1700
work	-1701
▁FBI	-1702
▁abs	-1703
▁lim	-1704
onest	-1705
▁Earn	-1706
▁Fuck	-1707
▁blow	-1708
▁hoot	-1709
▁safe	-1710
▁sent	-1711
▁yell	-1712
cially	-1713
▁bills	-1714
▁enjoy	-1715
▁shows	-1716
▁taxes	-1717
▁trade	-1718
▁viole	-1719
▁MOBILE	-1720
▁couple	-1721
▁return	-1722
▁hooters	-1723
▁shouldn	-1724
▁telling	-1725
AL	-1726
ok	-1727
▁€	-1728
ier	-1729
▁En	-1730
▁Jo	-1731
bing	-1732
ints	-1733
▁imp	-1734
▁lie	-1735
▁pen	-1736
▁book	-1737
▁mans	-1738
▁worked	-1739
lam	-1740
ony	-1741
uss	-1742
▁$,	-1743
ared	-1744
orth	-1745
rect	-1746
▁move	-1747
▁stay	-1748
▁wast	-1749
▁Enjoy	-1750
▁defin	-1751
▁remov	-1752
▁worth	-1753
▁Everyone	-1754
▁compensation	-1755
▁Co	-1756
▁RE	-1757
▁NOW	-1758
▁Sex	-1759
▁Use	-1760
▁pir	-1761
▁sle	-1762
▁tip	-1763
uthor	-1764
▁cost	-1765
▁easy	-1766
▁fore	-1767
fortun	-1768
estream	-1769
▁answer	-1770
▁safety	-1771
▁school	-1772
▁settle	-1773
▁arrested	-1774
ix	-1775
vel	-1776
▁DO	-1777
▁TH	-1778
ahah	-1779
hood	-1780
▁Our	-1781
▁WHA	-1782
▁beh	-1783
▁kne	-1784
▁ter	-1785
▁top	-1786
otion	-1787
ument	-1788
▁game	-1789
▁incl	-1790
▁pack	-1791
erally	-1792
reated	-1793
▁Chase	-1794
▁evict	-1795
▁prove	-1796
▁Depend	-1797
▁belong	-1798
▁contro	-1799
▁device	-1800
▁helium	-1801
▁mother	-1802
▁photos	-1803
▁sexual	-1804
▁similar	-1805
gn	-1806
ửa	-1807
cer	-1808
irt	-1809
▁gỗ	-1810
atis	-1811
▁CAN	-1812
▁bat	-1813
▁bud	-1814
▁pop	-1815
▁baby	-1816
▁paid	-1817
reedom	-1818
▁Islam	-1819
▁ident	-1820
▁marri	-1821
▁sleep	-1822
▁charge	-1823
▁manner	-1824
▁persons	-1825
▁protest	-1826
▁sexually	-1827
▁thinking	-1828
▁effective	-1829
AP	-1830
IR	-1831
PS	-1832
etc	-1833
ext	-1834
iam	-1835
ote	-1836
ume	-1837
ute	-1838
▁BA	-1839
▁IS	-1840
ffic	-1841
hone	-1842
ling	-1843
▁ANY	-1844
▁ide	-1845
atisf	-1846
inion	-1847
itter	-1848
nding	-1849
ought	-1850
▁List	-1851
▁Step	-1852
action	-1853
▁short	-1854
▁immedi	-1855
▁pretty	-1856
▁public	-1857
▁opinion	-1858
▁options	-1859
▁student	-1860
▁regardless	-1861
ED	-1862
ats	-1863
use	-1864
coin	-1865
lain	-1866
▁>>>	-1867
▁Buy	-1868
▁One	-1869
▁etc	-1870
▁fem	-1871
▁pics	-1872
ferred	-1873
search	-1874
▁broke	-1875
▁heart	-1876
▁study	-1877
▁chance	-1878
▁owners	-1879
▁search	-1880
▁details	-1881
▁pretend	-1882
▁private	-1883
▁immediately	-1884
OO	-1885
cy	-1886
yp	-1887
ock	-1888
▁AS	-1889
▁Hi	-1890
icle	-1891
ones	-1892
ront	-1893
▁ago	-1894
▁exc	-1895
▁gas	-1896
▁sus	-1897
▁mast	-1898
▁note	-1899
▁self	-1900
▁suck	-1901
▁games	-1902
▁limit	-1903
▁tight	-1904
▁custom	-1905
▁message	-1906
▁stopped	-1907
dy	-1908
den	-1909
des	-1910
ene	-1911
icy	-1912
nce	-1913
▁Ar	-1914
body	-1915
erve	-1916
ital	-1917
itar	-1918
orry	-1919
▁gun	-1920
fully	-1921
ially	-1922
▁Make	-1923
▁Only	-1924
▁conc	-1925
▁cree	-1926
▁phys	-1927
orrent	-1928
▁Would	-1929
▁given	-1930
▁proof	-1931
▁worry	-1932
endment	-1933
igation	-1934
▁damage	-1935
▁employ	-1936
▁guitar	-1937
▁social	-1938
▁channel	-1939
▁waiting	-1940
ationship	-1941
▁violation	-1942
▁completely	-1943
▁visitation	-1944
▁relationship	-1945
ID	-1946
UT	-1947
ns	-1948
▁x	-1949
amm	-1950
hib	-1951
▁Se	-1952
kely	-1953
lord	-1954
ween	-1955
▁Cry	-1956
▁boy	-1957
▁inj	-1958
▁ste	-1959
▁defe	-1960
▁form	-1961
▁mind	-1962
▁soft	-1963
▁hands	-1964
▁throw	-1965
▁value	-1966
▁doctor	-1967
▁second	-1968
▁between	-1969
▁literally	-1970
▁streaming	-1971
//	-1972
WS	-1973
ror	-1974
usb	-1975
vis	-1976
▁>>	-1977
▁Ve	-1978
draw	-1979
iagn	-1980
stal	-1981
stru	-1982
wise	-1983
▁Law	-1984
▁Per	-1985
▁cor	-1986
▁lic	-1987
amese	-1988
▁Kill	-1989
▁gift	-1990
▁husb	-1991
▁item	-1992
▁last	-1993
▁load	-1994
▁soon	-1995
▁tits	-1996
though	-1997
urbate	-1998
▁After	-1999
▁Veitn	-2000
▁begin	-2001
▁force	-2002
▁store	-2003
▁fucked	-2004
▁patern	-2005
▁satisf	-2006
▁Crystal	-2007
▁earning	-2008
▁husband	-2009
▁torrent	-2010
▁willing	-2011
▁writing	-2012
bitration	-2013
▁directly	-2014
▁landlord	-2015
▁reported	-2016
▁Veitnamese	-2017
".	-2018
su	-2019
ub	-2020
yd	-2021
AST	-2022
ery	-2023
ased	-2024
haps	-2025
ying	-2026
ently	-2027
itely	-2028
▁Cont	-2029
▁Even	-2030
▁FREE	-2031
▁Help	-2032
▁coup	-2033
▁hell	-2034
▁hurt	-2035
▁ment	-2036
ancing	-2037
friend	-2038
livery	-2039
▁pills	-2040
▁demand	-2041
▁linked	-2042
cription	-2043
iagnosed	-2044
▁brother	-2045
▁content	-2046
▁created	-2047
▁herself	-2048
▁license	-2049
▁respons	-2050
▁regularly	-2051
▁masturbate	-2052
▁understand	-2053
▁?	-2054
cum	-2055
era	-2056
oid	-2057
sel	-2058
uri	-2059
▁Cal	-2060
▁boo	-2061
▁fel	-2062
▁vir	-2063
ister	-2064
itted	-2065
▁Like	-2066
▁huge	-2067
▁mult	-2068
▁wasn	-2069
ipping	-2070
▁Other	-2071
▁asked	-2072
▁close	-2073
▁camera	-2074
▁change	-2075
▁easier	-2076
▁follow	-2077
▁google	-2078
▁anybody	-2079
▁charged	-2080
▁promise	-2081
▁Although	-2082
▁shipping	-2083
▁boyfriend	-2084
▁subscribe	-2085
AT	-2086
ERS	-2087
hed	-2088
iot	-2089
pis	-2090
▁IM	-2091
▁Tw	-2092
>>**	-2093
duct	-2094
ired	-2095
olut	-2096
ptop	-2097
udge	-2098
ydro	-2099
▁---	-2100
▁two	-2101
▁via	-2102
anned	-2103
▁Disc	-2104
▁hire	-2105
ederal	-2106
▁**>>**	-2107
▁offers	-2108
▁videos	-2109
▁foreign	-2110
▁suspect	-2111
get	-2112
ply	-2113
▁Sk	-2114
▁ve	-2115
outh	-2116
▁BRO	-2117
▁Pre	-2118
▁mur	-2119
▁sal	-2120
▁war	-2121
CKING	-2122
imate	-2123
rible	-2124
uture	-2125
▁held	-2126
▁news	-2127
▁porn	-2128
▁rope	-2129
▁tips	-2130
dition	-2131
pisode	-2132
▁doubt	-2133
▁fight	-2134
▁idiot	-2135
▁purch	-2136
▁letter	-2137
▁places	-2138
▁stolen	-2139
▁bitcoin	-2140
▁changes	-2141
▁conside	-2142
▁grounds	-2143
▁complain	-2144
▁problems	-2145
▁community	-2146
▁protected	-2147
▁questions	-2148
AND	-2149
got	-2150
ler	-2151
▁pm	-2152
Tube	-2153
▁Eas	-2154
▁FOR	-2155
▁mus	-2156
▁yet	-2157
arket	-2158
▁More	-2159
▁drop	-2160
missed	-2161
▁alone	-2162
▁avoid	-2163
▁pregn	-2164
▁refer	-2165
▁viral	-2166
▁Online	-2167
▁checks	-2168
▁expect	-2169
▁profit	-2170
▁realize	-2171
▁involved	-2172
▁dismissed	-2173
▁seriously	-2174
▁considered	-2175
▁everything	-2176
AR	-2177
▁z	-2178
att	-2179
oop	-2180
▁LI	-2181
▁gl	-2182
ered	-2183
goti	-2184
ighb	-2185
oice	-2186
▁var	-2187
▁Call	-2188
▁abus	-2189
▁lady	-2190
▁pull	-2191
▁spee	-2192
▁await	-2193
▁decis	-2194
▁equal	-2195
▁actual	-2196
▁forced	-2197
▁murder	-2198
laughter	-2199
▁Depends	-2200
▁consult	-2201
▁parties	-2202
▁serious	-2203
),	-2204
AD	-2205
by	-2206
oci	-2207
ope	-2208
ten	-2209
▁MS	-2210
▁QU	-2211
just	-2212
▁Car	-2213
▁def	-2214
▁flo	-2215
▁Hill	-2216
▁buck	-2217
▁copy	-2218
▁hope	-2219
▁jury	-2220
▁push	-2221
Mobile	-2222
▁Start	-2223
▁Steal	-2224
▁These	-2225
▁surpr	-2226
▁commit	-2227
▁multip	-2228
▁neighb	-2229
▁speech	-2230
▁knowing	-2231
▁project	-2232
!"	-2233
PA	-2234
SD	-2235
cl	-2236
UFF	-2237
ena	-2238
roy	-2239
zon	-2240
▁Cl	-2241
▁HE	-2242
▁Pe	-2243
▁SE	-2244
▁TE	-2245
cker	-2246
form	-2247
utes	-2248
vent	-2249
anger	-2250
atest	-2251
inent	-2252
▁bene	-2253
▁dest	-2254
▁idea	-2255
▁pass	-2256
▁ruin	-2257
▁sued	-2258
▁suit	-2259
itting	-2260
▁Thats	-2261
▁Users	-2262
▁creep	-2263
▁power	-2264
▁promo	-2265
▁steam	-2266
▁weeks	-2267
▁MOBILL	-2268
▁associ	-2269
▁author	-2270
▁pecker	-2271
▁sister	-2272
▁citizen	-2273
▁constru	-2274
▁correct	-2275
▁defense	-2276
▁removed	-2277
▁breaking	-2278
▁imminent	-2279
▁research	-2280
fortunately	-2281
BY	-2282
|(	-2283
ask	-2284
box	-2285
log	-2286
whe	-2287
▁Ob	-2288
--|:	-2289
LICK	-2290
OUND	-2291
iful	-2292
ille	-2293
▁Are	-2294
▁Hot	-2295
▁Ins	-2296
▁hig	-2297
▁veh	-2298
▁BABY	-2299
▁Have	-2300
▁cred	-2301
▁left	-2302
▁rout	-2303
▁CLICK	-2304
▁click	-2305
▁learn	-2306
▁shady	-2307
ational	-2308
autiful	-2309
ination	-2310
▁People	-2311
▁Sports	-2312
▁female	-2313
▁partic	-2314
▁reject	-2315
▁Contact	-2316
▁FUCKING	-2317
▁Hillary	-2318
▁clients	-2319
▁concern	-2320
▁construction	-2321
??	-2322
IZ	-2323
UM	-2324
uc	-2325
yw	-2326
TED	-2327
The	-2328
isd	-2329
▁:-	-2330
▁UR	-2331
▁fl	-2332
▁tR	-2333
▁yu	-2334
aken	-2335
ding	-2336
▁BUT	-2337
▁GPS	-2338
▁due	-2339
▁eth	-2340
▁hey	-2341
▁squ	-2342
igure	-2343
ising	-2344
▁EVER	-2345
▁exam	-2346
▁hang	-2347
▁jump	-2348
▁liqu	-2349
▁ones	-2350
▁says	-2351
▁type	-2352
▁vers	-2353
iamond	-2354
▁Carol	-2355
▁accus	-2356
▁argue	-2357
▁pussy	-2358
▁sense	-2359
▁sorry	-2360
▁tRump	-2361
▁trial	-2362
olutely	-2363
▁Lawyer	-2364
▁Sexual	-2365
▁ethics	-2366
▁pirate	-2367
ifically	-2368
▁destroy	-2369
▁exactly	-2370
▁mention	-2371
▁started	-2372
▁Obviously	-2373
▁attention	-2374
▁extortion	-2375
▁Unfortunately	-2376
PT	-2377
gl	-2378
hn	-2379
po	-2380
uh	-2381
▁;	-2382
▁đ	-2383
://	-2384
COM	-2385
pay	-2386
run	-2387
▁LO	-2388
▁SL	-2389
▁Su	-2390
ning	-2391
ouch	-2392
pped	-2393
uses	-2394
▁Ind	-2395
▁aut	-2396
▁cre	-2397
▁deb	-2398
▁mil	-2399
▁owe	-2400
inger	-2401
owser	-2402
uffin	-2403
▁luck	-2404
▁prog	-2405
▁rare	-2406
▁rele	-2407
▁save	-2408
▁sexy	-2409
▁tool	-2410
itated	-2411
ording	-2412
▁adult	-2413
▁break	-2414
▁spent	-2415
▁world	-2416
▁Google	-2417
▁Puffin	-2418
▁claims	-2419
▁secret	-2420
▁signed	-2421
▁Browser	-2422
▁cheaper	-2423
▁perhaps	-2424
▁twitter	-2425
▁version	-2426
▁violent	-2427
▁addition	-2428
▁certific	-2429
▁medicine	-2430
▁threaten	-2431
▁acestream	-2432
▁comfortable	-2433
▁Constitution	-2434
KE	-2435
coh	-2436
ral	-2437
sec	-2438
▁Bl	-2439
▁Sc	-2440
▁ed	-2441
ROID	-2442
ches	-2443
door	-2444
hers	-2445
hire	-2446
ness	-2447
▁Guy	-2448
▁Sim	-2449
▁air	-2450
▁bir	-2451
▁cir	-2452
▁cửa	-2453
▁eat	-2454
▁lik	-2455
▁suc	-2456
▁win	-2457
apons	-2458
cohol	-2459
ernie	-2460
gally	-2461
iding	-2462
obody	-2463
urely	-2464
▁Game	-2465
▁Hell	-2466
▁Link	-2467
▁Prom	-2468
▁Save	-2469
▁Vide	-2470
▁expl	-2471
▁mate	-2472
▁pain	-2473
▁shut	-2474
▁spam	-2475
onight	-2476
raight	-2477
runner	-2478
▁autom	-2479
▁buddy	-2480
▁judge	-2481
▁poses	-2482
▁steal	-2483
▁touch	-2484
▁Bernie	-2485
▁accept	-2486
▁simply	-2487
▁vagina	-2488
▁However	-2489
▁perform	-2490
▁delivery	-2491
▁industry	-2492
▁services	-2493
▁certainly	-2494
▁possession	-2495
▁roadrunner	-2496
▁Arbitration	-2497
▁manslaughter	-2498
▁Compatibility	-2499
?!	-2500
®.	-2501
gan	-2502
hot	-2503
lim	-2504
now	-2505
▁Fr	-2506
▁GI	-2507
augh	-2508
ayer	-2509
ians	-2510
lent	-2511
tery	-2512
uine	-2513
▁fav	-2514
▁hor	-2515
▁init	-2516
▁shop	-2517
aching	-2518
selves	-2519
▁appro	-2520
▁aware	-2521
▁cards	-2522
▁deals	-2523
▁later	-2524
▁polit	-2525
▁tells	-2526
onestly	-2527
▁couldn	-2528
▁course	-2529
▁paying	-2530
▁scared	-2531
▁wouldn	-2532
▁YouTube	-2533
▁control	-2534
▁genuine	-2535
▁lawsuit	-2536
▁success	-2537
▁thought	-2538
▁younger	-2539
▁feelings	-2540
▁physical	-2541
▁amendment	-2542
▁_	-2543
cel	-2544
edy	-2545
iew	-2546
rab	-2547
▁BO	-2548
▁By	-2549
▁RA	-2550
ampa	-2551
hole	-2552
ived	-2553
▁bag	-2554
▁exp	-2555
▁gre	-2556
▁mom	-2557
▁obt	-2558
▁tow	-2559
aying	-2560
poses	-2561
ulent	-2562
umbag	-2563
▁Does	-2564
▁Down	-2565
▁Join	-2566
▁belt	-2567
▁burn	-2568
▁fast	-2569
▁hist	-2570
▁pact	-2571
▁tree	-2572
likely	-2573
▁Leave	-2574
▁birth	-2575
▁cross	-2576
▁heard	-2577
▁milit	-2578
▁peace	-2579
▁quite	-2580
▁rapes	-2581
▁risks	-2582
ression	-2583
▁Source	-2584
▁access	-2585
▁dating	-2586
▁determ	-2587
▁months	-2588
▁punish	-2589
pecially	-2590
▁asshole	-2591
▁example	-2592
▁planned	-2593
▁scumbag	-2594
▁argument	-2595
▁position	-2596
▁someones	-2597
▁fraudulent	-2598
▁protection	-2599
IT	-2600
RS	-2601
US	-2602
rs	-2603
EST	-2604
bre	-2605
iqu	-2606
lip	-2607
net	-2608
▁PR	-2609
▁sn	-2610
ancy	-2611
atab	-2612
ergy	-2613
nter	-2614
pass	-2615
uman	-2616
▁Bay	-2617
▁Pok	-2618
▁Red	-2619
▁esc	-2620
▁mem	-2621
▁pie	-2622
ances	-2623
antly	-2624
ature	-2625
enced	-2626
feren	-2627
ingle	-2628
itled	-2629
▁Sapp	-2630
▁Shop	-2631
▁aren	-2632
▁draw	-2633
▁exec	-2634
▁ship	-2635
▁tast	-2636
reddit	-2637
rently	-2638
▁Email	-2639
▁blind	-2640
▁music	-2641
▁paper	-2642
▁phone	-2643
▁tired	-2644
▁energy	-2645
▁handle	-2646
▁harder	-2647
▁prosec	-2648
▁source	-2649
▁changed	-2650
▁history	-2651
▁pokemon	-2652
▁posting	-2653
▁records	-2654
▁Sapphire	-2655
▁decision	-2656
▁entitled	-2657
▁identity	-2658
▁multiple	-2659
▁stabbing	-2660
▁surprise	-2661
▁Preferred	-2662
▁beautiful	-2663
▁paperwork	-2664
▁political	-2665
ls	-2666
erc	-2667
hip	-2668
inc	-2669
ppy	-2670
rem	-2671
uro	-2672
▁HR	-2673
▁LL	-2674
▁UP	-2675
imum	-2676
ique	-2677
lies	-2678
part	-2679
unch	-2680
émon	-2681
▁Dep	-2682
▁Did	-2683
▁Gir	-2684
▁Non	-2685
▁dra	-2686
▁enf	-2687
▁est	-2688
▁mag	-2689
▁rid	-2690
▁tit	-2691
break	-2692
ished	-2693
ledge	-2694
otive	-2695
▁Test	-2696
▁chip	-2697
▁foot	-2698
▁leak	-2699
▁lost	-2700
▁pati	-2701
▁roll	-2702
▁seen	-2703
▁sold	-2704
remove	-2705
▁Hydro	-2706
▁Place	-2707
▁black	-2708
▁media	-2709
▁stock	-2710
actions	-2711
ycodone	-2712
▁Reddit	-2713
▁cancer	-2714
▁comput	-2715
▁forget	-2716
▁policy	-2717
▁switch	-2718
--------	-2719
▁Diamond	-2720
▁Pokémon	-2721
▁Website	-2722
▁battery	-2723
▁minimum	-2724
▁neither	-2725
▁exposure	-2726
▁marriage	-2727
▁military	-2728
▁pictures	-2729
▁requires	-2730
▁withdraw	-2731
▁diagnosed	-2732
▁jailbreak	-2733
▁permission	-2734
▁Hydrocodone	-2735
▁responsible	-2736
▁specifically	-2737
▁investigation	-2738
"?	-2739
."	-2740
IV	-2741
di	-2742
ny	-2743
BER	-2744
IRC	-2745
avy	-2746
oos	-2747
oph	-2748
▁=)	-2749
▁AP	-2750
▁Fe	-2751
▁MD	-2752
▁Ph	-2753
audi	-2754
cing	-2755
ping	-2756
pose	-2757
vert	-2758
▁//.	-2759
▁Att	-2760
▁Des	-2761
▁HIV	-2762
▁Man	-2763
▁Pay	-2764
▁cut	-2765
▁dad	-2766
▁lad	-2767
▁sea	-2768
▁tie	-2769
.....	-2770
esome	-2771
rency	-2772
yards	-2773
▁ASAP	-2774
▁Euro	-2775
▁Germ	-2776
▁HERE	-2777
▁IIRC	-2778
▁Navy	-2779
▁bust	-2780
▁cent	-2781
▁dump	-2782
▁legs	-2783
▁lose	-2784
▁qual	-2785
verage	-2786
▁Games	-2787
▁Promo	-2788
▁SOUND	-2789
▁Saudi	-2790
▁brain	-2791
▁cheap	-2792
▁loved	-2793
▁mills	-2794
▁photo	-2795
▁piece	-2796
▁punch	-2797
▁rules	-2798
▁suing	-2799
▁track	-2800
▁waste	-2801
▁crimes	-2802
▁estate	-2803
▁includ	-2804
▁ladies	-2805
▁packet	-2806
▁result	-2807
▁server	-2808
▁therap	-2809
▁Because	-2810
▁Germany	-2811
▁heating	-2812
▁product	-2813
▁purpose	-2814
▁reading	-2815
▁streams	-2816
▁Discount	-2817
▁Exposure	-2818
▁abortion	-2819
▁patients	-2820
▁solution	-2821
▁straight	-2822
▁Attention	-2823
▁intention	-2824
▁satisfied	-2825
▁shipyards	-2826
▁treatment	-2827
▁attempting	-2828
▁automotive	-2829
▁industries	-2830
▁punishment	-2831
▁consultation	-2832
.*	-2833
LY	-2834
SN	-2835
So	-2836
bd	-2837
wh	-2838
avi	-2839
gra	-2840
osp	-2841
uls	-2842
xic	-2843
▁()	-2844
▁ID	-2845
▁NS	-2846
▁Te	-2847
▁nd	-2848
▁oh	-2849
WSER	-2850
eric	-2851
erly	-2852
port	-2853
▁Mus	-2854
▁Sue	-2855
▁cry	-2856
▁die	-2857
▁ess	-2858
▁par	-2859
Phone	-2860
UFFIN	-2861
aring	-2862
ences	-2863
retty	-2864
▁Cert	-2865
▁Cunt	-2866
▁Hope	-2867
▁Some	-2868
▁ster	-2869
urious	-2870
▁Enter	-2871
▁exerc	-2872
▁floor	-2873
▁front	-2874
▁solve	-2875
▁words	-2876
ANDROID	-2877
arently	-2878
ospital	-2879
raining	-2880
▁PUFFIN	-2881
▁Pretty	-2882
▁asking	-2883
▁behavi	-2884
▁cancel	-2885
▁consum	-2886
▁credit	-2887
▁future	-2888
▁hacker	-2889
▁perman	-2890
▁seeing	-2891
▁stress	-2892
▁strong	-2893
▁BROWSER	-2894
▁drawing	-2895
▁medical	-2896
▁program	-2897
▁workers	-2898
▁currency	-2899
▁dumpster	-2900
▁friendly	-2901
▁sleeping	-2902
▁Otherwise	-2903
OW	-2904
af	-2905
ESS	-2906
but	-2907
ead	-2908
iar	-2909
rat	-2910
rel	-2911
▁CO	-2912
▁NE	-2913
▁SU	-2914
>>>>	-2915
apac	-2916
atal	-2917
bers	-2918
iate	-2919
lect	-2920
onse	-2921
room	-2922
▁Mod	-2923
▁ant	-2924
▁art	-2925
▁bom	-2926
▁eld	-2927
▁fil	-2928
▁gap	-2929
▁mor	-2930
▁rev	-2931
▁web	-2932
▁wel	-2933
iated	-2934
ivers	-2935
orced	-2936
osing	-2937
▁cast	-2938
▁grab	-2939
▁knew	-2940
▁nuts	-2941
▁side	-2942
▁step	-2943
iction	-2944
inally	-2945
ograph	-2946
▁Black	-2947
▁Hahah	-2948
▁Thank	-2949
▁catch	-2950
▁conce	-2951
▁daily	-2952
▁known	-2953
▁uncle	-2954
▁write	-2955
related	-2956
▁Golden	-2957
▁across	-2958
▁assets	-2959
▁design	-2960
▁emails	-2961
▁laptop	-2962
▁thanks	-2963
▁Rewards	-2964
▁bitches	-2965
▁damages	-2966
▁driving	-2967
▁elderly	-2968
▁freedom	-2969
▁happens	-2970
▁sterile	-2971
▁therapy	-2972
▁welcome	-2973
▁behavior	-2974
▁internet	-2975
▁pregnant	-2976
▁specific	-2977
▁instantly	-2978
▁definitely	-2979
▁experience	-2980
If	-2981
St	-2982
TER	-2983
dle	-2984
han	-2985
ilo	-2986
rog	-2987
▁<-	-2988
▁Av	-2989
▁OF	-2990
▁ey	-2991
arly	-2992
cies	-2993
iest	-2994
ites	-2995
rant	-2996
▁Acc	-2997
▁IRS	-2998
▁Off	-2999
▁Old	-3000
▁pls	-3001
agiar	-3002
allow	-3003
asses	-3004
iddle	-3005
itive	-3006
ratom	-3007
watch	-3008
▁Find	-3009
▁agen	-3010
▁hold	-3011
▁kilo	-3012
▁mask	-3013
▁prof	-3014
▁seem	-3015
▁witn	-3016
Stream	-3017
olence	-3018
ulsive	-3019
▁Legit	-3020
▁Match	-3021
▁cause	-3022
▁coins	-3023
▁lying	-3024
▁minor	-3025
▁regul	-3026
▁sever	-3027
▁sluts	-3028
▁speak	-3029
otional	-3030
▁Americ	-3031
▁Gather	-3032
▁danger	-3033
▁denial	-3034
▁injury	-3035
▁inside	-3036
▁kratom	-3037
▁loaded	-3038
▁necess	-3039
▁opport	-3040
▁theres	-3041
agiarism	-3042
essional	-3043
▁Killing	-3044
▁Tonight	-3045
▁compare	-3046
▁federal	-3047
▁missing	-3048
▁retract	-3049
▁weapons	-3050
▁witness	-3051
subscribe	-3052
▁approach	-3053
▁blowback	-3054
▁contract	-3055
▁paternal	-3056
▁punished	-3057
▁response	-3058
▁standard	-3059
▁terminal	-3060
▁Certified	-3061
▁copyright	-3062
▁emotional	-3063
▁illegally	-3064
▁impulsive	-3065
▁statements	-3066
▁opportunity	-3067
SG	-3068
TF	-3069
YS	-3070
aus	-3071
rim	-3072
ton	-3073
▁EN	-3074
▁Kn	-3075
▁MY	-3076
▁SO	-3077
angu	-3078
chat	-3079
erry	-3080
ient	-3081
rase	-3082
ring	-3083
▁Ama	-3084
▁Isn	-3085
▁Rem	-3086
▁aud	-3087
▁ten	-3088
ciety	-3089
cious	-3090
entle	-3091
utory	-3092
▁Huge	-3093
▁Pres	-3094
▁THIS	-3095
▁bike	-3096
▁cars	-3097
▁conf	-3098
▁hook	-3099
▁sale	-3100
▁suff	-3101
▁warn	-3102
▁webs	-3103
▁wont	-3104
▁Bring	-3105
▁Terry	-3106
▁basis	-3107
▁block	-3108
▁cases	-3109
▁filed	-3110
▁immig	-3111
▁mouth	-3112
▁organ	-3113
▁refin	-3114
▁route	-3115
▁smart	-3116
ability	-3117
anguage	-3118
atabase	-3119
illegal	-3120
▁Amazon	-3121
▁expert	-3122
▁gentle	-3123
▁losing	-3124
▁others	-3125
▁regret	-3126
▁remain	-3127
▁single	-3128
▁thinks	-3129
iversity	-3130
▁Easiest	-3131
▁curious	-3132
▁instead	-3133
▁society	-3134
▁threads	-3135
▁traffic	-3136
▁citizens	-3137
▁provides	-3138
▁websites	-3139
▁according	-3140
▁technical	-3141
▁harassment	-3142
▁legitimate	-3143
▁regulations	-3144
▁technically	-3145
EOP	-3146
aka	-3147
arm	-3148
ots	-3149
ovs	-3150
▁Es	-3151
▁Im	-3152
ALIT	-3153
aled	-3154
fits	-3155
ickr	-3156
mmmm	-3157
raid	-3158
rown	-3159
wear	-3160
▁APK	-3161
▁Sec	-3162
▁Who	-3163
▁adv	-3164
▁swe	-3165
▁tar	-3166
▁tot	-3167
▁tru	-3168
ALITY	-3169
EOPLE	-3170
ERSON	-3171
TEVER	-3172
arter	-3173
ester	-3174
iller	-3175
reens	-3176
▁CANT	-3177
▁East	-3178
▁Jail	-3179
▁Most	-3180
▁born	-3181
▁chat	-3182
▁damn	-3183
▁gone	-3184
▁inde	-3185
▁male	-3186
▁neck	-3187
▁orig	-3188
▁past	-3189
▁pick	-3190
ceived	-3191
▁carry	-3192
▁docum	-3193
▁essay	-3194
▁items	-3195
▁links	-3196
▁taken	-3197
▁taxed	-3198
▁wickr	-3199
▁yours	-3200
▁Anyone	-3201
▁PEOPLE	-3202
▁PERSON	-3203
▁afraid	-3204
▁brewer	-3205
▁defend	-3206
--|:--|:	-3207
reenshot	-3208
▁QUALITY	-3209
▁antique	-3210
▁collect	-3211
▁coupons	-3212
▁friends	-3213
▁prevent	-3214
▁reasons	-3215
▁various	-3216
identally	-3217
▁WHATEVER	-3218
▁happened	-3219
▁harassed	-3220
▁lawsuits	-3221
▁unlikely	-3222
▁customers	-3223
▁documents	-3224
▁sometimes	-3225
▁suffering	-3226
▁absolutely	-3227
DE	-3228
ms	-3229
BLE	-3230
ILL	-3231
amb	-3232
obe	-3233
▁OW	-3234
▁PO	-3235
▁Sw	-3236
▁Up	-3237
▁Vi	-3238
▁cy	-3239
▁je	-3240
▁jo	-3241
cons	-3242
ises	-3243
tube	-3244
ware	-3245
▁Bar	-3246
▁Let	-3247
▁Mad	-3248
▁Reg	-3249
Check	-3250
ected	-3251
etary	-3252
ureau	-3253
▁Talk	-3254
▁caus	-3255
▁coun	-3256
▁deny	-3257
▁dist	-3258
▁rent	-3259
▁yeah	-3260
cribed	-3261
inding	-3262
reaten	-3263
resent	-3264
resses	-3265
▁girls	-3266
▁helps	-3267
ulation	-3268
▁Listen	-3269
▁action	-3270
▁bureau	-3271
▁covers	-3272
▁killed	-3273
▁missed	-3274
▁negoti	-3275
peration	-3276
▁Freedom	-3277
▁decides	-3278
▁minutes	-3279
▁playful	-3280
▁pussies	-3281
▁refuses	-3282
▁respond	-3283
▁totally	-3284
▁youtube	-3285
▁Threaten	-3286
▁donation	-3287
▁horrible	-3288
▁monetary	-3289
▁national	-3290
▁sentence	-3291
▁admission	-3292
▁blackmail	-3293
▁depending	-3294
▁mentioned	-3295
▁priceless	-3296
▁represent	-3297
▁statement	-3298
▁statutory	-3299
▁authorities	-3300
▁refinancing	-3301
▁transaction	-3302
▁certificates	-3303
▁constitution	-3304
",	-3305
==	-3306
?"	-3307
AY	-3308
FW	-3309
My	-3310
VI	-3311
NDS	-3312
bel	-3313
don	-3314
ean	-3315
igg	-3316
mar	-3317
ype	-3318
▁CL	-3319
▁ON	-3320
▁TV	-3321
OPOT	-3322
Very	-3323
aved	-3324
ends	-3325
esus	-3326
inas	-3327
iven	-3328
ivid	-3329
lete	-3330
olar	-3331
util	-3332
ward	-3333
▁Int	-3334
▁Put	-3335
▁SEO	-3336
▁ban	-3337
▁cra	-3338
▁fix	-3339
▁god	-3340
▁hop	-3341
▁hot	-3342
▁inn	-3343
ained	-3344
ambit	-3345
iforn	-3346
imony	-3347
▁Cons	-3348
▁FAST	-3349
▁Full	-3350
▁Give	-3351
▁News	-3352
▁Plus	-3353
▁Will	-3354
▁cine	-3355
▁fing	-3356
▁fund	-3357
▁hour	-3358
▁lied	-3359
▁lock	-3360
▁lung	-3361
▁poop	-3362
▁rece	-3363
▁slap	-3364
▁sons	-3365
▁team	-3366
▁turn	-3367
▁week	-3368
SGOPOT	-3369
cedent	-3370
ptions	-3371
usable	-3372
▁Barco	-3373
▁Girls	-3374
▁Hello	-3375
▁Paper	-3376
▁Video	-3377
▁audio	-3378
▁fecal	-3379
▁funny	-3380
▁liked	-3381
▁rates	-3382
▁serve	-3383
▁slave	-3384
▁steps	-3385
▁theft	-3386
▁trick	-3387
▁uncom	-3388
ifornia	-3389
ividual	-3390
otected	-3391
▁Server	-3392
▁behind	-3393
▁listed	-3394
▁longer	-3395
▁useful	-3396
hibiting	-3397
▁accused	-3398
▁binding	-3399
▁custody	-3400
▁letting	-3401
▁process	-3402
▁vaginas	-3403
▁Services	-3404
▁transfer	-3405
▁Seriously	-3406
▁concerned	-3407
▁including	-3408
▁permanent	-3409
▁precedent	-3410
▁California	-3411
▁particular	-3412
▁themselves	-3413
▁uncomfortable	-3414
no	-3415
tt	-3416
ASE	-3417
For	-3418
ger	-3419
▁Ab	-3420
▁BE	-3421
▁CH	-3422
▁Ip	-3423
▁Ka	-3424
▁Ke	-3425
▁Pr	-3426
anna	-3427
ened	-3428
ised	-3429
isio	-3430
iver	-3431
rely	-3432
vote	-3433
▁BAS	-3434
▁COM	-3435
▁Rep	-3436
▁lol	-3437
▁pot	-3438
acked	-3439
arett	-3440
aving	-3441
inate	-3442
where	-3443
▁//./	-3444
▁Card	-3445
▁Guys	-3446
▁NSFW	-3447
▁Wait	-3448
▁bait	-3449
▁dumb	-3450
▁harm	-3451
▁hasn	-3452
▁quit	-3453
▁race	-3454
▁rate	-3455
▁seat	-3456
anning	-3457
change	-3458
ienced	-3459
ipment	-3460
▁Jesus	-3461
▁Visio	-3462
▁assum	-3463
▁degra	-3464
▁favor	-3465
▁laugh	-3466
▁lease	-3467
▁libel	-3468
▁table	-3469
▁wanna	-3470
igarett	-3471
▁Latest	-3472
▁Muslim	-3473
▁Office	-3474
▁assume	-3475
▁caused	-3476
▁freeze	-3477
▁iPhone	-3478
▁liable	-3479
▁shaved	-3480
▁Project	-3481
▁carries	-3482
▁college	-3483
▁commiss	-3484
▁episode	-3485
▁mistake	-3486
▁request	-3487
▁windows	-3488
▁American	-3489
▁Download	-3490
▁computer	-3491
▁hospital	-3492
▁powerful	-3493
▁equipment	-3494
▁acceptable	-3495
▁reasonable	-3496
▁effectively	-3497
▁transplants	-3498
▁prescription	-3499
He	-3500
RI	-3501
TS	-3502
sa	-3503
uf	-3504
ALL	-3505
ERE	-3506
You	-3507
ald	-3508
iet	-3509
iim	-3510
▁ME	-3511
▁UK	-3512
▁du	-3513
▁gf	-3514
ALLY	-3515
aced	-3516
appe	-3517
ason	-3518
born	-3519
lash	-3520
lled	-3521
time	-3522
▁///	-3523
▁PhD	-3524
▁Pos	-3525
▁Spe	-3526
▁Ver	-3527
▁Wow	-3528
▁ads	-3529
▁ann	-3530
▁bed	-3531
▁fan	-3532
▁loc	-3533
▁spr	-3534
ammed	-3535
anted	-3536
cover	-3537
erson	-3538
oking	-3539
ollyw	-3540
▁Dick	-3541
▁Kick	-3542
▁Xbox	-3543
▁date	-3544
▁imag	-3545
▁path	-3546
▁repe	-3547
▁took	-3548
ighted	-3549
▁Punch	-3550
▁Rings	-3551
▁along	-3552
▁blame	-3553
▁innoc	-3554
▁penal	-3555
▁raise	-3556
▁reach	-3557
▁title	-3558
ndering	-3559
▁Hollyw	-3560
▁Nobody	-3561
▁Saying	-3562
▁acting	-3563
▁create	-3564
▁double	-3565
▁easily	-3566
▁fairly	-3567
▁felony	-3568
▁figure	-3569
▁market	-3570
▁refuse	-3571
▁regist	-3572
▁remove	-3573
▁simple	-3574
▁status	-3575
▁alcohol	-3576
▁discuss	-3577
▁dumbass	-3578
▁enforce	-3579
▁meaning	-3580
▁permits	-3581
▁putting	-3582
▁scammed	-3583
▁shorter	-3584
▁showing	-3585
▁special	-3586
▁offering	-3587
▁referral	-3588
▁shooting	-3589
▁socially	-3590
▁torrents	-3591
▁violence	-3592
▁Hollywood	-3593
▁defending	-3594
▁immigrant	-3595
▁president	-3596
▁testimony	-3597
▁Regardless	-3598
▁commission	-3599
▁supportive	-3600
▁university	-3601
▁Havesexwithmeh	-3602
Oh	-3603
TY	-3604
---	-3605
App	-3606
ENT	-3607
ERO	-3608
alf	-3609
car	-3610
utm	-3611
▁Ap	-3612
▁Aw	-3613
▁ED	-3614
▁Gl	-3615
▁fo	-3616
LING	-3617
enty	-3618
▁=**	-3619
▁Kar	-3620
▁Spy	-3621
▁Tra	-3622
▁Uni	-3623
▁WAN	-3624
▁WIN	-3625
▁agg	-3626
▁coo	-3627
▁fle	-3628
▁jur	-3629
▁lau	-3630
▁mot	-3631
▁saw	-3632
ading	-3633
allen	-3634
ffick	-3635
opard	-3636
order	-3637
▁Calm	-3638
▁From	-3639
▁Inst	-3640
▁John	-3641
▁Soon	-3642
▁blog	-3643
▁came	-3644
▁nude	-3645
▁repl	-3646
agraph	-3647
ertain	-3648
retion	-3649
▁apply	-3650
▁bring	-3651
▁graph	-3652
▁lists	-3653
▁print	-3654
▁Person	-3655
▁adjust	-3656
▁advert	-3657
▁coupon	-3658
▁higher	-3659
▁jurisd	-3660
▁liquor	-3661
▁mental	-3662
▁office	-3663
▁phrase	-3664
▁tested	-3665
▁themes	-3666
▁Episode	-3667
▁Nothing	-3668
▁convict	-3669
▁disappe	-3670
▁employe	-3671
▁himself	-3672
▁include	-3673
▁jeopard	-3674
▁penning	-3675
▁........	-3676
▁Consider	-3677
▁function	-3678
▁identify	-3679
▁innocent	-3680
▁location	-3681
▁parental	-3682
▁released	-3683
▁traffick	-3684
▁Hopefully	-3685
▁Insurance	-3686
▁paragraph	-3687
▁protester	-3688
▁switching	-3689
▁therefore	-3690
▁contacting	-3691
▁discretion	-3692
▁plagiarism	-3693
▁jurisdiction	-3694
▁successfully	-3695
▁intentionally	-3696
BS	-3697
GA	-3698
IL	-3699
NL	-3700
TC	-3701
UR	-3702
fv	-3703
hi	-3704
ik	-3705
pc	-3706
ps	-3707
ta	-3708
NSH	-3709
PER	-3710
com	-3711
gen	-3712
▁>"	-3713
▁DI	-3714
▁EU	-3715
▁FT	-3716
▁IF	-3717
▁uk	-3718
cell	-3719
char	-3720
ines	-3721
ofie	-3722
reme	-3723
udes	-3724
utor	-3725
▁!!!	-3726
▁COP	-3727
▁Hes	-3728
▁SCT	-3729
▁See	-3730
▁WHI	-3731
▁log	-3732
allet	-3733
bably	-3734
earch	-3735
erman	-3736
front	-3737
iagra	-3738
igion	-3739
legal	-3740
pping	-3741
ublic	-3742
▁Bank	-3743
▁Type	-3744
▁aunt	-3745
▁base	-3746
▁bond	-3747
▁bott	-3748
▁cond	-3749
▁flip	-3750
▁half	-3751
▁jack	-3752
▁pill	-3753
▁rows	-3754
▁slow	-3755
▁teac	-3756
▁till	-3757
ommate	-3758
utions	-3759
weight	-3760
▁Being	-3761
▁Civil	-3762
▁Proof	-3763
▁Store	-3764
▁Those	-3765
▁Ummmm	-3766
▁WHAFF	-3767
▁drugs	-3768
▁gener	-3769
▁invit	-3770
▁motiv	-3771
▁older	-3772
▁puppy	-3773
▁sweet	-3774
ampaign	-3775
cellent	-3776
ivities	-3777
▁FRENSH	-3778
▁Report	-3779
▁Simple	-3780
▁Viagra	-3781
▁booked	-3782
▁border	-3783
▁career	-3784
▁circum	-3785
▁decide	-3786
▁flight	-3787
▁invite	-3788
▁minors	-3789
▁movies	-3790
▁option	-3791
▁permit	-3792
▁roofie	-3793
▁taking	-3794
▁target	-3795
▁worker	-3796
ferences	-3797
▁Forcing	-3798
▁challen	-3799
▁cracked	-3800
▁devices	-3801
▁finally	-3802
▁however	-3803
▁incapac	-3804
▁present	-3805
▁Probably	-3806
▁basement	-3807
▁bondages	-3808
▁convince	-3809
▁dogposes	-3810
▁painless	-3811
▁projects	-3812
▁roommate	-3813
▁severity	-3814
▁spending	-3815
▁disappear	-3816
▁organized	-3817
▁paternity	-3818
▁providing	-3819
▁subreddit	-3820
▁borderline	-3821
▁controlled	-3822
▁definition	-3823
▁perception	-3824
▁previously	-3825
▁references	-3826
▁enforcement	-3827
▁trafficking	-3828
▁incapacitated	-3829
LD	-3830
_.	-3831
jw	-3832
ml	-3833
wa	-3834
▁Z	-3835
ONE	-3836
acc	-3837
ero	-3838
iod	-3839
pty	-3840
she	-3841
▁:(	-3842
▁LE	-3843
▁NB	-3844
▁cs	-3845
▁|(	-3846
OULD	-3847
dden	-3848
html	-3849
imal	-3850
ited	-3851
jwpl	-3852
more	-3853
oked	-3854
ovie	-3855
rodu	-3856
shit	-3857
sign	-3858
uest	-3859
ures	-3860
▁Dut	-3861
▁LOL	-3862
▁PRO	-3863
▁Pop	-3864
▁ack	-3865
▁fee	-3866
▁fol	-3867
▁gut	-3868
▁ios	-3869
▁mat	-3870
▁max	-3871
▁son	-3872
▁syp	-3873
▁tem	-3874
▁tho	-3875
▁ver	-3876
▁vis	-3877
aming	-3878
arely	-3879
etect	-3880
etely	-3881
inted	-3882
iving	-3883
ouble	-3884
ufact	-3885
vised	-3886
▁BOTH	-3887
▁CONT	-3888
▁GIVE	-3889
▁Grab	-3890
▁King	-3891
▁Need	-3892
▁SLPT	-3893
▁Take	-3894
▁True	-3895
▁bast	-3896
▁cohe	-3897
▁fake	-3898
▁flex	-3899
▁hate	-3900
▁jobs	-3901
▁onto	-3902
▁tick	-3903
▁upon	-3904
▁wawa	-3905
athize	-3906
geries	-3907
itable	-3908
lasses	-3909
▁Apply	-3910
▁Click	-3911
▁Great	-3912
▁Heard	-3913
▁Movie	-3914
▁State	-3915
▁Where	-3916
▁botch	-3917
▁cable	-3918
▁empty	-3919
▁ended	-3920
▁exist	-3921
rection	-3922
▁Second	-3923
▁Though	-3924
▁acknow	-3925
▁active	-3926
▁agreed	-3927
▁animal	-3928
▁center	-3929
▁living	-3930
▁middle	-3931
▁period	-3932
▁potent	-3933
▁sleeps	-3934
▁slowly	-3935
▁sudden	-3936
▁terror	-3937
▁wallet	-3938
▁wonder	-3939
▁zinger	-3940
jwplayer	-3941
lication	-3942
▁Support	-3943
▁bastard	-3944
▁belongs	-3945
▁donated	-3946
▁finding	-3947
▁imagine	-3948
▁injured	-3949
▁partner	-3950
▁release	-3951
▁teacher	-3952
umentally	-3953
▁Honestly	-3954
▁cometely	-3955
▁discount	-3956
▁peaceful	-3957
▁terrible	-3958
▁treating	-3959
▁underage	-3960
▁Acestream	-3961
▁Overwatch	-3962
▁clearance	-3963
▁complaint	-3964
▁solutions	-3965
▁surgeries	-3966
▁sypathize	-3967
▁charitable	-3968
▁coherently	-3969
▁medication	-3970
▁parenthood	-3971
▁supervised	-3972
▁acknowledge	-3973
▁contractors	-3974
▁monumentally	-3975
',	-3976
*.	-3977
BE	-3978
GE	-3979
YI	-3980
nh	-3981
tw	-3982
ws	-3983
ần	-3984
ầu	-3985
▁[	-3986
AME	-3987
Pal	-3988
RET	-3989
aab	-3990
ged	-3991
ifs	-3992
isl	-3993
oud	-3994
oup	-3995
rif	-3996
row	-3997
wel	-3998
ông	-3999
▁DA	-4000
▁DE	-4001
▁IN	-4002
▁Ra	-4003
▁SP	-4004
OWLY	-4005
airs	-4006
ante	-4007
ateg	-4008
bots	-4009
cent	-4010
ensk	-4011
glig	-4012
hest	-4013
icul	-4014
idge	-4015
ires	-4016
nses	-4017
rist	-4018
▁Aug	-4019
▁Cửa	-4020
▁FYI	-4021
▁His	-4022
▁LLC	-4023
▁LPT	-4024
▁Mac	-4025
▁Med	-4026
▁Rap	-4027
▁VER	-4028
▁Wom	-4029
▁fre	-4030
▁ing	-4031
▁obl	-4032
▁sci	-4033
anies	-4034
ffici	-4035
icing	-4036
icycl	-4037
istic	-4038
izing	-4039
ocide	-4040
ories	-4041
ousin	-4042
rence	-4043
vious	-4044
wered	-4045
▁Dear	-4046
▁LIKE	-4047
▁LOVE	-4048
▁Prof	-4049
▁Want	-4050
▁beIN	-4051
▁crit	-4052
▁fest	-4053
▁guar	-4054
▁guil	-4055
▁hear	-4056
▁lawn	-4057
▁lies	-4058
▁spot	-4059
inkler	-4060
ishing	-4061
mitted	-4062
▁Exper	-4063
▁Heres	-4064
▁LOLGA	-4065
▁Lensk	-4066
▁Share	-4067
▁Visit	-4068
▁burns	-4069
▁cares	-4070
▁chair	-4071
▁clean	-4072
▁coinc	-4073
▁death	-4074
▁drift	-4075
▁elect	-4076
▁folks	-4077
▁hours	-4078
▁human	-4079
▁hurts	-4080
▁keeps	-4081
▁level	-4082
▁lungs	-4083
▁match	-4084
▁mater	-4085
▁spews	-4086
▁voice	-4087
bership	-4088
iculous	-4089
▁Christ	-4090
▁Design	-4091
▁Either	-4092
▁Helium	-4093
▁Herman	-4094
▁Miller	-4095
▁PayPal	-4096
▁SLOWLY	-4097
▁attach	-4098
▁bicycl	-4099
▁bridge	-4100
▁commie	-4101
▁condom	-4102
▁cousin	-4103
▁effici	-4104
▁legisl	-4105
▁lenses	-4106
▁nights	-4107
▁runner	-4108
▁serves	-4109
▁turned	-4110
▁typing	-4111
▁Eastern	-4112
▁Without	-4113
▁average	-4114
▁calling	-4115
▁discrim	-4116
▁experts	-4117
▁highest	-4118
▁intoxic	-4119
▁kicking	-4120
▁trouble	-4121
▁Austdoor	-4122
▁Lenskart	-4123
▁Remember	-4124
▁Reported	-4125
▁agencies	-4126
▁answered	-4127
▁assaults	-4128
▁assholes	-4129
▁believed	-4130
▁builders	-4131
▁building	-4132
▁flexible	-4133
▁genocide	-4134
▁guarante	-4135
▁inforced	-4136
▁manufact	-4137
▁material	-4138
▁noticing	-4139
▁provider	-4140
▁purchase	-4141
▁replaces	-4142
▁securely	-4143
▁suddenly	-4144
▁Supported	-4145
▁concealed	-4146
▁corrected	-4147
▁happening	-4148
▁initiated	-4149
▁otherwise	-4150
▁promotion	-4151
▁purchases	-4152
▁somewhere	-4153
▁sprinkler	-4154
▁Berniebots	-4155
▁associated	-4156
▁bicyclists	-4157
▁generating	-4158
▁investment	-4159
▁obligation	-4160
▁ridiculous	-4161
accidentally	-4162
▁coincidence	-4163
▁efficiently	-4164
▁festivities	-4165
▁legislation	-4166
▁necessities	-4167
▁transferred	-4168
,,	-4169
AQ	-4170
ST	-4171
WH	-4172
cc	-4173
df	-4174
bay	-4175
ele	-4176
men	-4177
ogn	-4178
rag	-4179
rue	-4180
uce	-4181
uit	-4182
▁;)	-4183
▁DN	-4184
▁Fl	-4185
▁Je	-4186
▁er	-4187
away	-4188
cuff	-4189
cuss	-4190
eper	-4191
etal	-4192
feit	-4193
ffil	-4194
fuck	-4195
iety	-4196
itty	-4197
loat	-4198
look	-4199
next	-4200
ords	-4201
ower	-4202
pack	-4203
sapp	-4204
sequ	-4205
stay	-4206
uous	-4207
walk	-4208
zard	-4209
▁Che	-4210
▁Cut	-4211
▁FAQ	-4212
▁SSN	-4213
▁Sky	-4214
▁cal	-4215
▁dup	-4216
▁ill	-4217
▁occ	-4218
▁pad	-4219
▁pus	-4220
NDING	-4221
WHERE	-4222
ailer	-4223
emean	-4224
ergic	-4225
gging	-4226
idden	-4227
inton	-4228
lorof	-4229
olved	-4230
omers	-4231
ooses	-4232
poena	-4233
which	-4234
▁Bush	-4235
▁Cust	-4236
▁Long	-4237
▁NOTE	-4238
▁Pain	-4239
▁acts	-4240
▁anal	-4241
▁cart	-4242
▁city	-4243
▁dogs	-4244
▁dope	-4245
▁fail	-4246
▁glad	-4247
▁guts	-4248
▁host	-4249
▁iron	-4250
▁join	-4251
▁misd	-4252
▁nipp	-4253
▁none	-4254
▁park	-4255
▁scan	-4256
▁sink	-4257
▁skin	-4258
▁slam	-4259
▁slut	-4260
▁supp	-4261
▁visa	-4262
▁walk	-4263
▁ways	-4264
▁weak	-4265
fucker	-4266
licate	-4267
raints	-4268
really	-4269
urther	-4270
▁Fancy	-4271
▁Float	-4272
▁Never	-4273
▁Short	-4274
▁South	-4275
▁costs	-4276
▁couch	-4277
▁fatal	-4278
▁hello	-4279
▁login	-4280
▁magic	-4281
▁metal	-4282
▁moral	-4283
▁mutil	-4284
▁reper	-4285
▁salad	-4286
▁sites	-4287
▁tempt	-4288
mitting	-4289
pective	-4290
redient	-4291
rounded	-4292
▁Having	-4293
▁Surely	-4294
▁Theifs	-4295
▁Wouldn	-4296
▁againt	-4297
▁attack	-4298
▁compet	-4299
▁copies	-4300
▁deeper	-4301
▁hazard	-4302
▁latest	-4303
▁native	-4304
▁plates	-4305
▁recogn	-4306
▁reduce	-4307
▁untrue	-4308
▁yester	-4309
cussions	-4310
gligence	-4311
loroform	-4312
▁begging	-4313
▁consequ	-4314
▁dealing	-4315
▁explain	-4316
▁footage	-4317
▁insured	-4318
▁nipples	-4319
▁publish	-4320
▁receive	-4321
▁remains	-4322
▁revoked	-4323
▁sharing	-4324
▁smarter	-4325
▁swallow	-4326
signature	-4327
▁ANYWHERE	-4328
▁allergic	-4329
▁backpack	-4330
▁catching	-4331
▁pirating	-4332
▁restroom	-4333
▁whatsapp	-4334
▁Available	-4335
▁Customers	-4336
▁basically	-4337
▁companies	-4338
▁duplicate	-4339
▁employees	-4340
▁execution	-4341
▁fightpass	-4342
▁misdemean	-4343
▁mutilated	-4344
▁neighbour	-4345
▁probation	-4346
▁yesterday	-4347
▁Especially	-4348
▁chloroform	-4349
▁difference	-4350
▁especially	-4351
▁ingredient	-4352
▁restraints	-4353
▁surrounded	-4354
▁temptation	-4355
▁terrorists	-4356
▁perspective	-4357
▁manufacturing	-4358
▁repercussions	-4359
")	-4360
BM	-4361
CC	-4362
Jo	-4363
WW	-4364
bo	-4365
gy	-4366
jm	-4367
nx	-4368
pn	-4369
py	-4370
▁#	-4371
!**	-4372
)."	-4373
Dup	-4374
OME	-4375
PIN	-4376
PRO	-4377
SHA	-4378
aff	-4379
agP	-4380
asy	-4381
cet	-4382
eds	-4383
ese	-4384
fef	-4385
ief	-4386
imo	-4387
nia	-4388
nol	-4389
olt	-4390
ori	-4391
rai	-4392
sha	-4393
umm	-4394
uru	-4395
▁,%	-4396
▁BB	-4397
▁Da	-4398
▁EA	-4399
▁FL	-4400
▁IP	-4401
▁MG	-4402
▁Ox	-4403
▁PD	-4404
▁PH	-4405
▁TR	-4406
▁Um	-4407
▁ak	-4408
▁hd	-4409
▁mm	-4410
▁sy	-4411
CCER	-4412
John	-4413
MENT	-4414
With	-4415
adon	-4416
afin	-4417
anax	-4418
came	-4419
cuit	-4420
earl	-4421
etjm	-4422
exas	-4423
ided	-4424
ivan	-4425
ives	-4426
lica	-4427
lvis	-4428
roll	-4429
shot	-4430
ucky	-4431
vide	-4432
view	-4433
when	-4434
▁**(	-4435
▁Ads	-4436
▁Doe	-4437
▁Fin	-4438
▁GIA	-4439
▁IBM	-4440
▁MAc	-4441
▁Max	-4442
▁Mog	-4443
▁Nug	-4444
▁PIN	-4445
▁Pol	-4446
▁Ray	-4447
▁Rec	-4448
▁Rox	-4449
▁Tac	-4450
▁WWW	-4451
▁bam	-4452
▁bar	-4453
▁cas	-4454
▁cot	-4455
▁net	-4456
▁twe	-4457
▁vpn	-4458
Appro	-4459
Duped	-4460
ahore	-4461
anner	-4462
aping	-4463
being	-4464
cocet	-4465
cuffs	-4466
dated	-4467
dling	-4468
ecaps	-4469
email	-4470
ffins	-4471
ibers	-4472
issue	-4473
istol	-4474
oline	-4475
omnia	-4476
orbed	-4477
orner	-4478
ortab	-4479
ragio	-4480
ticle	-4481
▁Dark	-4482
▁Dont	-4483
▁Feel	-4484
▁Hand	-4485
▁Kent	-4486
▁Many	-4487
▁Must	-4488
▁OSHA	-4489
▁Once	-4490
▁RACE	-4491
▁Wake	-4492
▁acqu	-4493
▁bonk	-4494
▁cant	-4495
▁chan	-4496
▁cock	-4497
▁diss	-4498
▁eats	-4499
▁eyes	-4500
▁gold	-4501
▁hair	-4502
▁hast	-4503
▁hood	-4504
▁mass	-4505
▁melt	-4506
▁norm	-4507
▁osha	-4508
▁plus	-4509
▁pour	-4510
▁prem	-4511
▁rust	-4512
▁salt	-4513
▁swab	-4514
▁town	-4515
▁wild	-4516
▁wise	-4517
afinil	-4518
agPoll	-4519
arding	-4520
atever	-4521
ctions	-4522
derall	-4523
doctor	-4524
edback	-4525
enders	-4526
erness	-4527
iguous	-4528
igures	-4529
reason	-4530
welers	-4531
▁Citiz	-4532
▁Colle	-4533
▁Defin	-4534
▁Layer	-4535
▁Metjm	-4536
▁Pearl	-4537
▁Power	-4538
▁Price	-4539
▁Sport	-4540
▁Texas	-4541
▁Treat	-4542
▁Wrong	-4543
▁above	-4544
▁bombs	-4545
▁boobs	-4546
▁decat	-4547
▁early	-4548
▁fines	-4549
▁fully	-4550
▁goods	-4551
▁grand	-4552
▁guess	-4553
▁kinds	-4554
▁kitty	-4555
▁notch	-4556
▁occur	-4557
▁prize	-4558
▁shame	-4559
▁signs	-4560
▁spell	-4561
▁thank	-4562
▁thief	-4563
▁truly	-4564
▁truth	-4565
▁wires	-4566
▁yards	-4567
CSGOPOT	-4568
Without	-4569
agement	-4570
idation	-4571
rifying	-4572
▁Anyway	-4573
▁Ativan	-4574
▁Austin	-4575
▁Author	-4576
▁Baylor	-4577
▁Hidden	-4578
▁Intern	-4579
▁Iphone	-4580
▁Laptop	-4581
▁Lortab	-4582
▁Maximo	-4583
▁Negoti	-4584
▁Nugget	-4585
▁Others	-4586
▁Pistol	-4587
▁Police	-4588
▁Public	-4589
▁SOCCER	-4590
▁School	-4591
▁Tacori	-4592
▁became	-4593
▁buckle	-4594
▁budies	-4595
▁closed	-4596
▁corner	-4597
▁cotton	-4598
▁creepy	-4599
▁depart	-4600
▁farely	-4601
▁grades	-4602
▁infuri	-4603
▁object	-4604
▁optics	-4605
▁pelvis	-4606
▁scream	-4607
▁square	-4608
▁timely	-4609
▁tissue	-4610
▁uncons	-4611
▁upshot	-4612
Approved	-4613
mandated	-4614
unfortun	-4615
▁Codeine	-4616
▁Darkrai	-4617
▁Federal	-4618
▁Figures	-4619
▁Mogadon	-4620
▁Options	-4621
▁Someone	-4622
▁Twitter	-4623
▁assange	-4624
▁awesome	-4625
▁benefit	-4626
▁chooses	-4627
▁circuit	-4628
▁deserve	-4629
▁escorts	-4630
▁extreme	-4631
▁helpful	-4632
▁killers	-4633
▁liquify	-4634
▁muffins	-4635
▁network	-4636
▁pushers	-4637
▁replica	-4638
▁servers	-4639
▁stabbed	-4640
▁tickets	-4641
▁tyrande	-4642
igarettes	-4643
▁Adderall	-4644
▁Diamonds	-4645
▁FlagPoll	-4646
▁Insomnia	-4647
▁Jewelers	-4648
▁Karambit	-4649
▁Kentucky	-4650
▁Percocet	-4651
▁Verragio	-4652
▁Violence	-4653
▁Withdraw	-4654
▁absorbed	-4655
▁accounts	-4656
▁backlash	-4657
▁bullshit	-4658
▁calibers	-4659
▁checking	-4660
▁coddling	-4661
▁comments	-4662
▁drinking	-4663
▁escaping	-4664
▁exercise	-4665
▁facebook	-4666
▁gasoline	-4667
▁giveaway	-4668
▁incident	-4669
▁kneecaps	-4670
▁nutsicle	-4671
▁overlook	-4672
▁retailer	-4673
▁retarded	-4674
▁subpoena	-4675
▁throwing	-4676
▁Financing	-4677
▁Modafinil	-4678
▁Oxycodone	-4679
▁civilians	-4680
▁completed	-4681
▁dependant	-4682
▁initially	-4683
▁piratebay	-4684
▁recognize	-4685
▁recording	-4686
▁submitted	-4687
unfortunate	-4688
▁Apparently	-4689
▁Authorized	-4690
▁Definitely	-4691
▁Depression	-4692
▁Engagement	-4693
▁Negotiable	-4694
▁Personally	-4695
▁Roxycodone	-4696
▁Screenshot	-4697
▁Treatments	-4698
▁negligence	-4699
▁originally	-4700
▁terrifying	-4701
▁wilderness	-4702
▁decatitated	-4703
▁infuriating	-4704
▁restraining	-4705
▁unconscious	-4706
▁understated	-4707
▁Prescription	-4708
▁consequences	-4709
▁misdemeanors	-4710
▁motherfucker	-4711
▁transmission	-4712
▁intoxications	-4713
▁neighbourhood	-4714
:|	-4715
Ar	-4716
EP	-4717
FC	-4718
XQ	-4719
br	-4720
te	-4721
wr	-4722
:**	-4723
>>>	-4724
???	-4725
AMO	-4726
ENG	-4727
REA	-4728
aha	-4729
als	-4730
ari	-4731
cat	-4732
cho	-4733
how	-4734
hus	-4735
hyp	-4736
ibl	-4737
inv	-4738
mer	-4739
rew	-4740
rid	-4741
str	-4742
urd	-4743
▁SH	-4744
▁ST	-4745
▁bs	-4746
▁fr	-4747
▁hy	-4748
Dort	-4749
acle	-4750
arez	-4751
caut	-4752
elhi	-4753
eted	-4754
head	-4755
hlet	-4756
iams	-4757
mund	-4758
obia	-4759
onor	-4760
orny	-4761
over	-4762
rake	-4763
reen	-4764
ride	-4765
vise	-4766
wmen	-4767
▁Ber	-4768
▁CPA	-4769
▁Her	-4770
▁Min	-4771
▁Res	-4772
▁Ste	-4773
▁Two	-4774
▁amd	-4775
▁ble	-4776
▁dox	-4777
▁mir	-4778
▁sou	-4779
Their	-4780
alone	-4781
anmar	-4782
asion	-4783
dered	-4784
drown	-4785
edoph	-4786
hibit	-4787
human	-4788
icism	-4789
igade	-4790
ights	-4791
oring	-4792
ronic	-4793
shirt	-4794
visit	-4795
wayer	-4796
▁$...	-4797
▁Baka	-4798
▁Dude	-4799
▁Easy	-4800
▁Fake	-4801
▁Ohio	-4802
▁Real	-4803
▁acid	-4804
▁akin	-4805
▁coma	-4806
▁cult	-4807
▁dict	-4808
▁echo	-4809
▁fool	-4810
▁gray	-4811
▁hunt	-4812
▁keyw	-4813
▁molt	-4814
▁morn	-4815
▁nine	-4816
▁poac	-4817
▁prop	-4818
▁seek	-4819
▁sick	-4820
▁syst	-4821
▁tall	-4822
▁tres	-4823
▁unpr	-4824
▁vary	-4825
▁went	-4826
AMONDS	-4827
ensual	-4828
enthus	-4829
hypnol	-4830
iesced	-4831
ifting	-4832
imilar	-4833
ipated	-4834
lights	-4835
parent	-4836
thanks	-4837
▁-----	-4838
▁Coins	-4839
▁Cunts	-4840
▁Delhi	-4841
▁Mills	-4842
▁Story	-4843
▁Throw	-4844
▁drops	-4845
▁error	-4846
▁fired	-4847
▁honor	-4848
▁horny	-4849
▁payer	-4850
▁reply	-4851
▁safer	-4852
▁sling	-4853
▁spate	-4854
▁troll	-4855
▁unamb	-4856
▁warez	-4857
iblings	-4858
lishing	-4859
ophobia	-4860
▁--->>>	-4861
▁Donald	-4862
▁Fuckin	-4863
▁Madrid	-4864
▁Starts	-4865
▁absurd	-4866
▁athlet	-4867
▁bother	-4868
▁casual	-4869
▁common	-4870
▁donate	-4871
▁drinks	-4872
▁forgot	-4873
▁gotten	-4874
▁itself	-4875
▁lwayer	-4876
▁matter	-4877
▁normal	-4878
▁prerog	-4879
▁served	-4880
▁starts	-4881
▁tenant	-4882
Dortmund	-4883
cautions	-4884
parental	-4885
▁Berkely	-4886
▁Gamespy	-4887
▁Minutes	-4888
▁Myanmar	-4889
▁abusing	-4890
▁brigade	-4891
▁claimed	-4892
▁concept	-4893
▁crewmen	-4894
▁debacle	-4895
▁depends	-4896
▁dickish	-4897
▁dictate	-4898
▁forward	-4899
▁genders	-4900
▁granted	-4901
▁hookers	-4902
▁hostile	-4903
▁install	-4904
▁killing	-4905
▁married	-4906
▁moltovs	-4907
▁morning	-4908
▁notific	-4909
▁reality	-4910
▁roomate	-4911
▁ruining	-4912
▁statute	-4913
▁treated	-4914
▁tweeted	-4915
▁variety	-4916
▁vehicle	-4917
▁wasting	-4918
astically	-4919
etectable	-4920
▁Citizens	-4921
▁DIAMONDS	-4922
▁Received	-4923
▁Williams	-4924
▁assuming	-4925
▁checkout	-4926
▁cleaning	-4927
▁cultures	-4928
▁employer	-4929
▁eviction	-4930
▁exchange	-4931
▁hardline	-4932
▁hardware	-4933
▁honestly	-4934
▁keywords	-4935
▁killings	-4936
▁mistreat	-4937
▁override	-4938
▁patience	-4939
▁poachers	-4940
▁pointing	-4941
▁reaction	-4942
▁requests	-4943
▁rohypnol	-4944
▁subhuman	-4945
▁trespass	-4946
▁unenthus	-4947
▁validity	-4948
▁whatever	-4949
▁Deception	-4950
▁Handcuffs	-4951
▁committed	-4952
▁criticism	-4953
▁employers	-4954
▁eventully	-4955
▁exception	-4956
▁extremely	-4957
▁involving	-4958
▁motivated	-4959
▁neighbors	-4960
▁objective	-4961
▁pressured	-4962
▁regarding	-4963
▁rejecting	-4964
▁supervise	-4965
▁underwear	-4966
▁unrelated	-4967
▁wellbeing	-4968
▁wondering	-4969
▁acquiesced	-4970
▁belongings	-4971
▁deadweight	-4972
▁determined	-4973
▁dissimilar	-4974
▁electronic	-4975
▁protesting	-4976
▁standalone	-4977
▁supporting	-4978
▁technology	-4979
▁precautions	-4980
▁prerogative	-4981
▁unambiguous	-4982
▁undiagnosed	-4983
▁unprotected	-4984
▁Islamophobia	-4985
▁notification	-4986
▁professional	-4987
▁undetectable	-4988
▁paternalistic	-4989
!:	-4990
CI	-4991
In	-4992
Ra	-4993
YC	-4994
fo	-4995
͜ຈ	-4996
▁ຈ	-4997
▁༼	-4998
ACT	-4999
EDY	-5000
ISO	-5001
LLE	-5002
MON	-5003
Out	-5004
Ret	-5005
TCG	-5006
UST	-5007
alt	-5008
ane	-5009
els	-5010
equ	-5011
hma	-5012
ino	-5013
lit	-5014
lly	-5015
ria	-5016
tri	-5017
ues	-5018
▁)(	-5019
▁/.	-5020
▁AW	-5021
▁Of	-5022
▁ps	-5023
▁ri	-5024
▁xl	-5025
▁ya	-5026
▁yo	-5027
CELE	-5028
Dong	-5029
Info	-5030
More	-5031
NDER	-5032
aict	-5033
anda	-5034
atre	-5035
bbit	-5036
fund	-5037
gend	-5038
ield	-5039
illy	-5040
isan	-5041
reds	-5042
ribe	-5043
that	-5044
▁Btw	-5045
▁Bup	-5046
▁DNA	-5047
▁Day	-5048
▁Ill	-5049
▁Str	-5050
▁^^/	-5051
▁ast	-5052
▁dro	-5053
▁enl	-5054
▁hcl	-5055
▁mob	-5056
▁tnx	-5057
▁upl	-5058
▁vac	-5059
▁yrs	-5060
EPISO	-5061
LLECT	-5062
acter	-5063
ander	-5064
anide	-5065
inced	-5066
inois	-5067
posed	-5068
there	-5069
venir	-5070
verob	-5071
▁---|	-5072
▁....	-5073
▁Arab	-5074
▁Cele	-5075
▁JUST	-5076
▁KILL	-5077
▁Shit	-5078
▁Sign	-5079
▁Stop	-5080
▁Them	-5081
▁Virt	-5082
▁Work	-5083
▁aged	-5084
▁bare	-5085
▁crap	-5086
▁dish	-5087
▁edit	-5088
▁felt	-5089
▁fist	-5090
▁grey	-5091
▁guid	-5092
▁holy	-5093
▁hund	-5094
▁kept	-5095
▁kidn	-5096
▁sees	-5097
▁slit	-5098
▁slot	-5099
▁soil	-5100
▁spoo	-5101
▁stri	-5102
▁user	-5103
▁wing	-5104
Raised	-5105
aganda	-5106
angely	-5107
atedly	-5108
equate	-5109
rarely	-5110
ropion	-5111
steria	-5112
triath	-5113
ussian	-5114
velous	-5115
▁.....	-5116
▁Allow	-5117
▁Drake	-5118
▁Lists	-5119
▁Quest	-5120
▁Raise	-5121
▁Seems	-5122
▁Tampa	-5123
▁alive	-5124
▁booze	-5125
▁bribe	-5126
▁bucks	-5127
▁chill	-5128
▁dance	-5129
▁excav	-5130
▁handy	-5131
▁holes	-5132
▁lived	-5133
▁plans	-5134
▁risky	-5135
▁solid	-5136
▁split	-5137
▁squad	-5138
▁swing	-5139
▁topic	-5140
▁train	-5141
▁twice	-5142
▁whore	-5143
▁worst	-5144
Dongers	-5145
EPISODE	-5146
Retract	-5147
alcohol	-5148
leading	-5149
writing	-5150
▁COMEDY	-5151
▁Comedy	-5152
▁Future	-5153
▁Market	-5154
▁Twenty	-5155
▁afaict	-5156
▁asthma	-5157
▁client	-5158
▁freely	-5159
▁missus	-5160
▁nobody	-5161
▁passed	-5162
▁player	-5163
▁rabbit	-5164
▁remedy	-5165
▁system	-5166
▁unborn	-5167
▁wholly	-5168
▁wrists	-5169
finately	-5170
▁-------	-5171
▁---|---	-5172
▁Austria	-5173
▁COLLECT	-5174
▁Clinton	-5175
▁Discord	-5176
▁ability	-5177
▁applies	-5178
▁blaming	-5179
▁cyanide	-5180
▁dresses	-5181
▁exhibit	-5182
▁hacking	-5183
▁illness	-5184
▁interes	-5185
▁justice	-5186
▁mothers	-5187
▁outfits	-5188
▁overall	-5189
▁popular	-5190
▁running	-5191
▁screams	-5192
▁somehow	-5193
▁theatre	-5194
▁tripped	-5195
verobbing	-5196
▁Canadian	-5197
▁Database	-5198
▁Hahahaha	-5199
▁Illinois	-5200
▁adequate	-5201
▁athletic	-5202
▁compared	-5203
▁customer	-5204
▁deciding	-5205
▁forgiven	-5206
▁guidance	-5207
▁hundreds	-5208
▁husbands	-5209
▁hysteria	-5210
▁minority	-5211
▁outright	-5212
▁partisan	-5213
▁purposes	-5214
▁recently	-5215
▁religion	-5216
▁siblings	-5217
▁souvenir	-5218
▁standing	-5219
Retracting	-5220
triathlete	-5221
▁Amendment	-5222
▁Bupropion	-5223
▁Unrelated	-5224
▁Virtually	-5225
▁bleaching	-5226
▁character	-5227
▁commiting	-5228
▁confident	-5229
▁convinced	-5230
▁countries	-5231
▁crosswalk	-5232
▁currently	-5233
▁dishonest	-5234
▁donations	-5235
▁honorable	-5236
▁liability	-5237
▁marvelous	-5238
▁nationals	-5239
▁ownership	-5240
▁pregnancy	-5241
▁trackable	-5242
▁uplifting	-5243
▁aggression	-5244
▁apparently	-5245
▁committing	-5246
▁employment	-5247
▁excavating	-5248
▁exercising	-5249
▁inhibiting	-5250
▁preventing	-5251
▁propaganda	-5252
▁publishing	-5253
▁repeatedly	-5254
▁retraction	-5255
▁handwriting	-5256
▁impulsively	-5257
▁retractions	-5258
▁graverobbing	-5259
▁indefinately	-5260
▁participated	-5261
▁representing	-5262
▁transactions	-5263
.)	-5264
Ah	-5265
DY	-5266
FJ	-5267
MS	-5268
QU	-5269
go	-5270
ya	-5271
ız	-5272
▁£	-5273
..!	-5274
ADC	-5275
ALK	-5276
ATI	-5277
DER	-5278
GIC	-5279
GON	-5280
IOT	-5281
ORB	-5282
VIP	-5283
anf	-5284
ded	-5285
esy	-5286
for	-5287
idu	-5288
nat	-5289
ups	-5290
▁AT	-5291
▁Cr	-5292
▁Id	-5293
▁ap	-5294
CIOU	-5295
ERST	-5296
IRTH	-5297
LATI	-5298
NTIL	-5299
UMAN	-5300
ades	-5301
alse	-5302
altz	-5303
ball	-5304
deem	-5305
eddy	-5306
hern	-5307
ingo	-5308
male	-5309
pena	-5310
play	-5311
ploy	-5312
pute	-5313
ript	-5314
sort	-5315
ualy	-5316
uted	-5317
vial	-5318
zona	-5319
▁**,	-5320
▁ABS	-5321
▁Act	-5322
▁Ari	-5323
▁Cro	-5324
▁EQU	-5325
▁Fre	-5326
▁HAS	-5327
▁Hig	-5328
▁ITS	-5329
▁MFJ	-5330
▁MUR	-5331
▁Muh	-5332
▁OPs	-5333
▁OWN	-5334
▁PLE	-5335
▁POS	-5336
▁Pat	-5337
▁Sun	-5338
▁UND	-5339
▁USD	-5340
▁WTF	-5341
▁YER	-5342
▁amm	-5343
▁box	-5344
▁dip	-5345
▁fru	-5346
▁ppl	-5347
▁ran	-5348
▁rip	-5349
▁sad	-5350
▁wow	-5351
AMBER	-5352
LIGON	-5353
SNESS	-5354
Youll	-5355
actly	-5356
ammad	-5357
arded	-5358
asing	-5359
berry	-5360
ciary	-5361
letey	-5362
lymer	-5363
mando	-5364
notes	-5365
odial	-5366
omest	-5367
onday	-5368
quest	-5369
ubord	-5370
ungry	-5371
▁BODY	-5372
▁Happ	-5373
▁ISNT	-5374
▁Keep	-5375
▁LIVE	-5376
▁Meal	-5377
▁Next	-5378
▁Pass	-5379
▁Pose	-5380
▁Sout	-5381
▁TALK	-5382
▁TEST	-5383
▁Thus	-5384
▁USES	-5385
▁argu	-5386
▁arms	-5387
▁beer	-5388
▁bomb	-5389
▁chem	-5390
▁cite	-5391
▁clot	-5392
▁cruc	-5393
▁duck	-5394
▁fidu	-5395
▁film	-5396
▁grat	-5397
▁gren	-5398
▁hero	-5399
▁kiss	-5400
▁lean	-5401
▁matt	-5402
▁rand	-5403
▁repo	-5404
▁text	-5405
▁toss	-5406
ADCAST	-5407
LATION	-5408
ackets	-5409
andals	-5410
anford	-5411
charge	-5412
cholar	-5413
ernity	-5414
icular	-5415
ileged	-5416
income	-5417
safety	-5418
strous	-5419
tenant	-5420
threat	-5421
▁Apple	-5422
▁BASIC	-5423
▁BIRTH	-5424
▁Globe	-5425
▁HUMAN	-5426
▁IDIOT	-5427
▁MAGIC	-5428
▁Money	-5429
▁Teddy	-5430
▁Their	-5431
▁UNTIL	-5432
▁WANTS	-5433
▁Woman	-5434
▁advis	-5435
▁ahead	-5436
▁basic	-5437
▁bears	-5438
▁biggy	-5439
▁bingo	-5440
▁broad	-5441
▁calls	-5442
▁caves	-5443
▁cheer	-5444
▁earns	-5445
▁false	-5446
▁femin	-5447
▁forms	-5448
▁frisk	-5449
▁gifts	-5450
▁guest	-5451
▁hydro	-5452
▁lives	-5453
▁noise	-5454
▁notes	-5455
▁owing	-5456
▁parts	-5457
▁pints	-5458
▁plain	-5459
▁reinv	-5460
▁retal	-5461
▁rooms	-5462
▁scars	-5463
▁silly	-5464
▁skype	-5465
▁stuck	-5466
▁three	-5467
▁tools	-5468
▁uknow	-5469
▁waltz	-5470
▁weren	-5471
▁white	-5472
--|:--|	-5473
Article	-5474
ERSTAND	-5475
exactly	-5476
ference	-5477
istment	-5478
▁ABSORB	-5479
▁Awards	-5480
▁Debate	-5481
▁Except	-5482
▁Follow	-5483
▁France	-5484
▁Hahaha	-5485
▁Higher	-5486
▁Indian	-5487
▁MURDER	-5488
▁Monday	-5489
▁PLEASE	-5490
▁RENDER	-5491
▁RIGHTS	-5492
▁Search	-5493
▁Seller	-5494
▁become	-5495
▁defect	-5496
▁ending	-5497
▁expens	-5498
▁helped	-5499
▁hungry	-5500
▁insult	-5501
▁leaves	-5502
▁myster	-5503
▁played	-5504
▁recall	-5505
▁redeem	-5506
▁ruined	-5507
▁script	-5508
▁slaves	-5509
▁snitch	-5510
▁stores	-5511
▁towers	-5512
▁usable	-5513
▁vacant	-5514
▁wrongs	-5515
Language	-5516
gendered	-5517
ingering	-5518
ployment	-5519
▁Arizona	-5520
▁CHAMBER	-5521
▁CONCIOU	-5522
▁EQUALLY	-5523
▁Legally	-5524
▁Polymer	-5525
▁RELIGON	-5526
▁Request	-5527
▁STREAMS	-5528
▁armando	-5529
▁bestway	-5530
▁brewery	-5531
▁consume	-5532
▁cutting	-5533
▁decades	-5534
▁dispute	-5535
▁dropped	-5536
▁general	-5537
▁grenade	-5538
▁handled	-5539
▁learned	-5540
▁ordered	-5541
▁payment	-5542
▁pulling	-5543
▁recover	-5544
▁results	-5545
▁subpena	-5546
▁tasting	-5547
▁testing	-5548
▁trivial	-5549
▁waterbo	-5550
▁whoever	-5551
ADCASTING	-5552
▁Actually	-5553
▁BIRTHING	-5554
▁Coverage	-5555
▁Freaking	-5556
▁Muhammad	-5557
▁RELATION	-5558
▁brackets	-5559
▁campaign	-5560
▁clothing	-5561
▁courtesy	-5562
▁database	-5563
▁degraded	-5564
▁entering	-5565
▁exciting	-5566
▁hydrogen	-5567
▁insubord	-5568
▁learning	-5569
▁premises	-5570
▁probable	-5571
▁provided	-5572
▁swinging	-5573
▁trolling	-5574
▁truthful	-5575
▁unusable	-5576
cholarship	-5577
▁:--|:--|:	-5578
▁Admitting	-5579
▁Completey	-5580
▁Depending	-5581
▁Paternity	-5582
▁Strangely	-5583
▁banknotes	-5584
▁breweries	-5585
▁challenge	-5586
▁complains	-5587
▁consented	-5588
▁countless	-5589
▁crucified	-5590
▁custodial	-5591
▁described	-5592
▁discharge	-5593
▁eventualy	-5594
▁exploring	-5595
▁fiduciary	-5596
▁interests	-5597
▁monstrous	-5598
▁operation	-5599
▁permitted	-5600
▁privately	-5601
▁qualified	-5602
▁referring	-5603
▁subtenant	-5604
▁terminate	-5605
▁uncertain	-5606
▁violating	-5607
▁Blackberry	-5608
▁Everything	-5609
▁Experience	-5610
▁Individual	-5611
▁UNDERSTAND	-5612
▁chemically	-5613
▁enlistment	-5614
▁highlights	-5615
▁jeopardize	-5616
▁physically	-5617
▁preference	-5618
▁privileged	-5619
▁submission	-5620
▁successful	-5621
▁requirement	-5622
▁BROADCASTING	-5623
▁CONCIOUSNESS	-5624
▁Professional	-5625
▁cheerleading	-5626
▁insubordination	-5627
"!	-5628
=>	-5629
Bo	-5630
DA	-5631
No	-5632
Wh	-5633
__	-5634
ne	-5635
sm	-5636
.."	-5637
ARN	-5638
Yes	-5639
arc	-5640
ata	-5641
atr	-5642
bal	-5643
bsp	-5644
con	-5645
eat	-5646
ges	-5647
gim	-5648
gri	-5649
het	-5650
iba	-5651
ico	-5652
igo	-5653
oon	-5654
opt	-5655
pir	-5656
rin	-5657
rod	-5658
tie	-5659
tsy	-5660
uhs	-5661
ızı	-5662
▁(.	-5663
▁AF	-5664
▁CP	-5665
▁Em	-5666
▁FB	-5667
▁MW	-5668
▁Pm	-5669
▁SN	-5670
===>	-5671
Boom	-5672
ONEY	-5673
afia	-5674
ands	-5675
apan	-5676
aser	-5677
asst	-5678
bery	-5679
ceed	-5680
cile	-5681
dose	-5682
enya	-5683
exts	-5684
iant	-5685
iers	-5686
inic	-5687
mine	-5688
nbsp	-5689
nder	-5690
nset	-5691
ogue	-5692
oooo	-5693
oore	-5694
oura	-5695
raft	-5696
ummy	-5697
vant	-5698
yers	-5699
▁AWP	-5700
▁Abs	-5701
▁Elo	-5702
▁GOT	-5703
▁Mak	-5704
▁Saf	-5705
▁Upd	-5706
▁eye	-5707
▁key	-5708
▁nag	-5709
▁nim	-5710
▁ple	-5711
▁rob	-5712
▁six	-5713
▁ton	-5714
Field	-5715
Which	-5716
alist	-5717
ament	-5718
etish	-5719
gimme	-5720
hetic	-5721
igguh	-5722
istan	-5723
mmons	-5724
ousal	-5725
ralia	-5726
rated	-5727
selor	-5728
▁Blog	-5729
▁Cool	-5730
▁EARN	-5731
▁Etsy	-5732
▁FULL	-5733
▁Flip	-5734
▁Hack	-5735
▁Ille	-5736
▁Mesh	-5737
▁PRIZ	-5738
▁Rest	-5739
▁Wage	-5740
▁deep	-5741
▁edge	-5742
▁evil	-5743
▁grow	-5744
▁isnt	-5745
▁myst	-5746
▁offe	-5747
▁poor	-5748
▁shes	-5749
▁tech	-5750
▁tour	-5751
▁wish	-5752
▁zero	-5753
ansfer	-5754
atalie	-5755
hanced	-5756
ittles	-5757
ittuhs	-5758
option	-5759
ourage	-5760
pendix	-5761
▁...."	-5762
▁Block	-5763
▁China	-5764
▁Happy	-5765
▁Japan	-5766
▁Kaiba	-5767
▁Kenya	-5768
▁Knife	-5769
▁MONEY	-5770
▁Manup	-5771
▁Moore	-5772
▁Still	-5773
▁advoc	-5774
▁alert	-5775
▁benev	-5776
▁crash	-5777
▁depos	-5778
▁deser	-5779
▁dined	-5780
▁discl	-5781
▁drape	-5782
▁globe	-5783
▁gotta	-5784
▁green	-5785
▁ideas	-5786
▁incur	-5787
▁laser	-5788
▁likes	-5789
▁locks	-5790
▁nerve	-5791
▁often	-5792
▁soooo	-5793
▁spoof	-5794
▁surre	-5795
▁toxic	-5796
▁tries	-5797
▁wined	-5798
consult	-5799
eatened	-5800
ingerpr	-5801
omestic	-5802
quality	-5803
sighted	-5804
▁Crummy	-5805
▁Expect	-5806
▁Giving	-5807
▁Laying	-5808
▁Safari	-5809
▁Tested	-5810
▁Trades	-5811
▁abuser	-5812
▁anally	-5813
▁bottle	-5814
▁choice	-5815
▁clinic	-5816
▁crappy	-5817
▁damned	-5818
▁daught	-5819
▁debate	-5820
▁hanged	-5821
▁lowest	-5822
▁messed	-5823
▁nature	-5824
▁nearly	-5825
▁nigguh	-5826
▁nimrod	-5827
▁powder	-5828
▁powers	-5829
▁pulled	-5830
▁random	-5831
▁sunset	-5832
▁tossed	-5833
▁whores	-5834
▁yelled	-5835
research	-5836
rogation	-5837
▁CONTEST	-5838
▁Illegal	-5839
▁Justice	-5840
▁Legends	-5841
▁Natalie	-5842
▁anyones	-5843
▁bending	-5844
▁bothers	-5845
▁conduct	-5846
▁consist	-5847
▁evasion	-5848
▁excuses	-5849
▁extends	-5850
▁fingers	-5851
▁forgery	-5852
▁forgive	-5853
▁healthy	-5854
▁invoice	-5855
▁kidding	-5856
▁lawyers	-5857
▁literal	-5858
▁methods	-5859
▁mobille	-5860
▁penalty	-5861
▁players	-5862
▁spousal	-5863
▁summons	-5864
▁vehcile	-5865
▁Japanese	-5866
▁Sexually	-5867
▁Skittles	-5868
▁Southern	-5869
▁Transfer	-5870
▁analogue	-5871
▁appendix	-5872
▁applying	-5873
▁arguably	-5874
▁benefits	-5875
▁changing	-5876
▁deadline	-5877
▁disposed	-5878
▁domestic	-5879
▁enhanced	-5880
▁executed	-5881
▁fingered	-5882
▁flooring	-5883
▁mistaken	-5884
▁mystical	-5885
▁obtained	-5886
▁overdose	-5887
▁overstay	-5888
▁overtime	-5889
▁packages	-5890
▁pathetic	-5891
▁settings	-5892
▁shopping	-5893
▁skittuhs	-5894
▁soldiers	-5895
▁speaking	-5896
▁stopping	-5897
▁wordplay	-5898
grilfriend	-5899
▁Australia	-5900
▁Fingering	-5901
▁Perfectly	-5902
▁avoidance	-5903
▁consumers	-5904
▁counselor	-5905
▁daughters	-5906
▁demanding	-5907
▁fundament	-5908
▁marketing	-5909
▁prosecute	-5910
▁retaliate	-5911
▁undermine	-5912
▁vehicular	-5913
▁Absolutely	-5914
▁Employment	-5915
▁adjustment	-5916
▁afterwards	-5917
▁authorized	-5918
▁circumvent	-5919
▁collection	-5920
▁negotiated	-5921
▁prescribed	-5922
▁pretending	-5923
▁prosecutor	-5924
▁registered	-5925
▁theeatened	-5926
▁Application	-5927
▁arbitration	-5928
▁association	-5929
▁benevolence	-5930
▁cooperation	-5931
▁experienced	-5932
▁interception	-5933
▁negotiations	-5934
▁surrendering	-5935
▁waterboarded	-5936
▁interrogation	-5937
▁confidentially	-5938
▁constitutional	-5939
▁responsibility	-5940
----------------	-5941
!)	-5942
):	-5943
?)	-5944
CU	-5945
EE	-5946
KA	-5947
hF	-5948
lQ	-5949
İz	-5950
ım	-5951
▁‪	-5952
**.	-5953
DAA	-5954
HeA	-5955
IST	-5956
OIZ	-5957
OTE	-5958
OUS	-5959
SPA	-5960
TEN	-5961
TSD	-5962
UNG	-5963
agb	-5964
anç	-5965
asc	-5966
atm	-5967
exc	-5968
gun	-5969
ids	-5970
ika	-5971
ivh	-5972
ley	-5973
mia	-5974
mpr	-5975
old	-5976
oul	-5977
pol	-5978
shr	-5979
tho	-5980
uma	-5981
urb	-5982
urk	-5983
▁%.	-5984
▁..	-5985
▁.?	-5986
▁AR	-5987
▁BL	-5988
▁CA	-5989
▁CC	-5990
▁Ek	-5991
▁Li	-5992
▁ft	-5993
▁ww	-5994
▁xD	-5995
▁İz	-5996
CUBE	-5997
alar	-5998
arve	-5999
atex	-6000
bles	-6001
ders	-6002
does	-6003
eful	-6004
gate	-6005
ghan	-6006
hent	-6007
icro	-6008
idal	-6009
iday	-6010
ilia	-6011
odab	-6012
oken	-6013
onet	-6014
only	-6015
onth	-6016
outu	-6017
pare	-6018
pret	-6019
soft	-6020
stic	-6021
ucks	-6022
vity	-6023
warc	-6024
▁:-)	-6025
▁://	-6026
▁ARE	-6027
▁Ass	-6028
▁Cum	-6029
▁DOW	-6030
▁Dak	-6031
▁Dam	-6032
▁Hyp	-6033
▁Ive	-6034
▁Kaz	-6035
▁OUT	-6036
▁PMs	-6037
▁RAP	-6038
▁Sin	-6039
▁Son	-6040
▁War	-6041
▁awp	-6042
▁srs	-6043
OIZhF	-6044
aired	-6045
anged	-6046
ascus	-6047
beard	-6048
brain	-6049
desce	-6050
ergen	-6051
essed	-6052
exper	-6053
icine	-6054
iimov	-6055
ildly	-6056
ilify	-6057
irror	-6058
itals	-6059
ively	-6060
lespe	-6061
leyin	-6062
mprar	-6063
night	-6064
unday	-6065
untly	-6066
video	-6067
youtu	-6068
ımızı	-6069
▁Cart	-6070
▁Fire	-6071
▁High	-6072
▁Huma	-6073
▁Kaif	-6074
▁Katr	-6075
▁Luck	-6076
▁MORE	-6077
▁Matt	-6078
▁NDAA	-6079
▁OVER	-6080
▁PTSD	-6081
▁Part	-6082
▁ZERO	-6083
▁adds	-6084
▁arri	-6085
▁arse	-6086
▁baff	-6087
▁ball	-6088
▁boot	-6089
▁dipl	-6090
▁eset	-6091
▁foam	-6092
▁gain	-6093
▁gave	-6094
▁laun	-6095
▁libr	-6096
▁mark	-6097
▁pity	-6098
▁pose	-6099
▁quot	-6100
▁rage	-6101
▁ramm	-6102
▁tele	-6103
alaran	-6104
angers	-6105
armacy	-6106
asstor	-6107
butrin	-6108
cerity	-6109
father	-6110
iggers	-6111
iimovs	-6112
inspir	-6113
liance	-6114
paypal	-6115
rative	-6116
roduce	-6117
uation	-6118
ulment	-6119
▁Doing	-6120
▁Drown	-6121
▁Dutch	-6122
▁EVERY	-6123
▁GOING	-6124
▁Inexc	-6125
▁Latex	-6126
▁Micro	-6127
▁Month	-6128
▁Ortho	-6129
▁Rodab	-6130
▁Since	-6131
▁Steel	-6132
▁Swagb	-6133
▁TeSPA	-6134
▁Under	-6135
▁abort	-6136
▁affil	-6137
▁ammun	-6138
▁blood	-6139
▁bluff	-6140
▁enshr	-6141
▁final	-6142
▁flame	-6143
▁float	-6144
▁guilt	-6145
▁logic	-6146
▁mafia	-6147
▁moron	-6148
▁needa	-6149
▁owner	-6150
▁posts	-6151
▁scope	-6152
▁seeds	-6153
▁thous	-6154
Russian	-6155
emptive	-6156
lorable	-6157
ringing	-6158
smoking	-6159
urbance	-6160
▁Afghan	-6161
▁Andrew	-6162
▁Arabia	-6163
▁Dakika	-6164
▁Friday	-6165
▁Hottie	-6166
▁Kazanç	-6167
▁Pedoph	-6168
▁Really	-6169
▁Sunday	-6170
▁Xvideo	-6171
▁agents	-6172
▁classy	-6173
▁cmprar	-6174
▁idiots	-6175
▁incred	-6176
▁issues	-6177
▁medivh	-6178
▁mildly	-6179
▁mobile	-6180
▁obtain	-6181
▁obtuse	-6182
▁opiate	-6183
▁patron	-6184
▁prices	-6185
▁shills	-6186
▁shorts	-6187
▁spoken	-6188
▁starve	-6189
▁strike	-6190
▁trades	-6191
▁wasted	-6192
▁weight	-6193
▁winner	-6194
OIZhFHeA	-6195
allowing	-6196
othermia	-6197
warcraft	-6198
▁Abilify	-6199
▁Bayonet	-6200
▁Cartoon	-6201
▁Finally	-6202
▁Instant	-6203
▁Katrina	-6204
▁Partner	-6205
▁Treason	-6206
▁Updates	-6207
▁actions	-6208
▁airline	-6209
▁alright	-6210
▁anymore	-6211
▁asiimov	-6212
▁baffled	-6213
▁bathing	-6214
▁bluntly	-6215
▁centers	-6216
▁chances	-6217
▁dalaran	-6218
▁drivers	-6219
▁emergen	-6220
▁firearm	-6221
▁hearing	-6222
▁hurting	-6223
▁inexper	-6224
▁kidnapp	-6225
▁numbers	-6226
▁obvious	-6227
▁percent	-6228
▁prepare	-6229
▁ramming	-6230
▁robbery	-6231
▁salespe	-6232
▁science	-6233
▁slander	-6234
▁smoking	-6235
▁upfront	-6236
▁İzleyin	-6237
olarımızı	-6238
▁Abortion	-6239
▁Asiimovs	-6240
▁Damascus	-6241
▁Delivery	-6242
▁Downvote	-6243
▁Drowning	-6244
▁Internet	-6245
▁Medicine	-6246
▁Stanford	-6247
▁Whenever	-6248
▁XboxCUBE	-6249
▁cardback	-6250
▁cheating	-6251
▁complete	-6252
▁condesce	-6253
▁deserves	-6254
▁disclose	-6255
▁fingerpr	-6256
▁genitals	-6257
▁mattress	-6258
▁pharmacy	-6259
▁promises	-6260
▁resolved	-6261
▁settling	-6262
▁suicidal	-6263
▁tasteful	-6264
▁thoughts	-6265
▁triggers	-6266
▁Excellent	-6267
▁Microsoft	-6268
▁Rodabaugh	-6269
▁Sincerity	-6270
▁Swagbucks	-6271
▁Underwear	-6272
▁abortions	-6273
▁advisable	-6274
▁annulment	-6275
▁enshrined	-6276
▁expecting	-6277
▁expensive	-6278
▁genuinely	-6279
▁installed	-6280
▁interpret	-6281
▁introduce	-6282
▁neckbeard	-6283
▁ourselves	-6284
▁perceived	-6285
▁possessed	-6286
▁preaching	-6287
▁releasing	-6288
▁strangers	-6289
▁thousands	-6290
▁torrented	-6291
inspiration	-6292
▁Deplorable	-6293
▁Mattresses	-6294
▁Pedophilia	-6295
▁Swallowing	-6296
▁Wellbutrin	-6297
▁affiliated	-6298
▁ammunition	-6299
▁assaulting	-6300
▁businesses	-6301
▁compliance	-6302
▁conducting	-6303
▁directions	-6304
▁disability	-6305
▁discourage	-6306
▁eventually	-6307
▁fatherhood	-6308
▁immigrants	-6309
▁individual	-6310
▁infringing	-6311
▁kickasstor	-6312
▁membership	-6313
▁mentioning	-6314
▁situations	-6315
▁Afghanistan	-6316
▁Hypothermia	-6317
▁Inexcusable	-6318
▁advertising	-6319
▁competitive	-6320
▁disturbance	-6321
▁fundamental	-6322
▁patronizing	-6323
▁salespeople	-6324
▁fingerprints	-6325
▁fraudulently	-6326
▁Videolarımızı	-6327
▁condescending	-6328
▁determination	-6329
▁inexperienced	-6330
''	-6331
++	-6332
Be	-6333
CA	-6334
EN	-6335
ET	-6336
EX	-6337
IA	-6338
IP	-6339
MO	-6340
db	-6341
ih	-6342
ió	-6343
kn	-6344
pa	-6345
va	-6346
vi	-6347
vo	-6348
yh	-6349
àn	-6350
és	-6351
ód	-6352
ệt	-6353
▁]	-6354
ADM	-6355
ASS	-6356
ATT	-6357
Ban	-6358
ETH	-6359
HEN	-6360
How	-6361
ITE	-6362
LIR	-6363
LLO	-6364
MSY	-6365
NLO	-6366
PHE	-6367
PRE	-6368
RGE	-6369
ROP	-6370
ROT	-6371
TFO	-6372
ado	-6373
ape	-6374
bye	-6375
fil	-6376
irm	-6377
ión	-6378
kem	-6379
org	-6380
oss	-6381
ota	-6382
▁($	-6383
▁==	-6384
▁ec	-6385
▁oz	-6386
▁ti	-6387
AMEC	-6388
CEAL	-6389
CTUM	-6390
ENLY	-6391
ERAP	-6392
EXTE	-6393
HECK	-6394
Help	-6395
ICAL	-6396
ISIN	-6397
KALI	-6398
LICE	-6399
NDED	-6400
REST	-6401
TENT	-6402
XTED	-6403
YING	-6404
Yeah	-6405
alaz	-6406
anie	-6407
chie	-6408
conc	-6409
give	-6410
here	-6411
iary	-6412
igue	-6413
ihad	-6414
iter	-6415
lian	-6416
lope	-6417
ollo	-6418
olor	-6419
oret	-6420
owse	-6421
reci	-6422
rete	-6423
sage	-6424
veal	-6425
▁ASS	-6426
▁Bas	-6427
▁Bet	-6428
▁Bre	-6429
▁CAL	-6430
▁CCW	-6431
▁DEA	-6432
▁Dés	-6433
▁GOD	-6434
▁IDK	-6435
▁Inf	-6436
▁Jud	-6437
▁KFC	-6438
▁LOO	-6439
▁NUM	-6440
▁TEL	-6441
▁UNL	-6442
▁WAS	-6443
▁arr	-6444
▁ben	-6445
▁cho	-6446
▁cód	-6447
▁goo	-6448
▁ign	-6449
▁lab	-6450
▁mum	-6451
▁nud	-6452
▁rad	-6453
▁rot	-6454
▁url	-6455
▁wig	-6456
ADMIN	-6457
ASSIC	-6458
NLOAD	-6459
PERTY	-6460
PHEWS	-6461
RETTY	-6462
ROTIC	-6463
TREET	-6464
abled	-6465
ación	-6466
acles	-6467
aimer	-6468
antyh	-6469
going	-6470
itude	-6471
iverr	-6472
known	-6473
money	-6474
olent	-6475
ommod	-6476
ourse	-6477
serve	-6478
texts	-6479
unged	-6480
uting	-6481
▁AERO	-6482
▁Avvo	-6483
▁BITE	-6484
▁BTFO	-6485
▁CASE	-6486
▁COPS	-6487
▁CUFF	-6488
▁FILL	-6489
▁FLIR	-6490
▁Fact	-6491
▁Foot	-6492
▁Gard	-6493
▁HUNG	-6494
▁Keys	-6495
▁Kota	-6496
▁Move	-6497
▁PHYS	-6498
▁Port	-6499
▁RAPE	-6500
▁RAVI	-6501
▁SPOT	-6502
▁Sale	-6503
▁Sand	-6504
▁Shut	-6505
▁Stat	-6506
▁Sung	-6507
▁TELL	-6508
▁Thug	-6509
▁Turk	-6510
▁VERY	-6511
▁WHEN	-6512
▁YOUR	-6513
▁appo	-6514
▁batt	-6515
▁elig	-6516
▁enve	-6517
▁exit	-6518
▁kink	-6519
▁loos	-6520
▁plug	-6521
▁prim	-6522
▁ramp	-6523
▁sild	-6524
▁sole	-6525
▁sues	-6526
▁tank	-6527
▁temp	-6528
▁tens	-6529
▁thug	-6530
▁vids	-6531
KALIKE	-6532
PRETED	-6533
REATEN	-6534
RGEOUS	-6535
alazar	-6536
chieve	-6537
enafil	-6538
fetish	-6539
icians	-6540
idents	-6541
kemons	-6542
versly	-6543
▁$,!!!	-6544
▁AFTER	-6545
▁BASED	-6546
▁Bitch	-6547
▁CHECK	-6548
▁ENDED	-6549
▁Elian	-6550
▁FORCE	-6551
▁GAMEC	-6552
▁HELLO	-6553
▁Knock	-6554
▁LEAST	-6555
▁MISIN	-6556
▁Right	-6557
▁SLICE	-6558
▁SUPER	-6559
▁TEETH	-6560
▁WHICH	-6561
▁WOULD	-6562
▁afoul	-6563
▁categ	-6564
▁chain	-6565
▁cyber	-6566
▁fails	-6567
▁felon	-6568
▁forth	-6569
▁grows	-6570
▁guise	-6571
▁hasty	-6572
▁impro	-6573
▁incre	-6574
▁intim	-6575
▁jihad	-6576
▁penis	-6577
▁punct	-6578
▁score	-6579
▁seats	-6580
▁snoop	-6581
▁sucks	-6582
▁trump	-6583
▁trunk	-6584
▁worse	-6585
ERAPIST	-6586
cargate	-6587
fathers	-6588
feiture	-6589
imately	-6590
insible	-6591
iveness	-6592
justice	-6593
ography	-6594
ossible	-6595
reserve	-6596
rewards	-6597
vention	-6598
violent	-6599
▁ARREST	-6600
▁Apollo	-6601
▁Beanie	-6602
▁Caught	-6603
▁Direct	-6604
▁EROTIC	-6605
▁Effect	-6606
▁Europe	-6607
▁Fiverr	-6608
▁Friend	-6609
▁Madden	-6610
▁NUMBER	-6611
▁OPENLY	-6612
▁PRETTY	-6613
▁RECTUM	-6614
▁STREET	-6615
▁TEXTED	-6616
▁TRYING	-6617
▁UNLESS	-6618
▁United	-6619
▁WHIMSY	-6620
▁agency	-6621
▁annual	-6622
▁banned	-6623
▁código	-6624
▁denied	-6625
▁desire	-6626
▁dosage	-6627
▁exempt	-6628
▁extens	-6629
▁extent	-6630
▁factor	-6631
▁favour	-6632
▁gained	-6633
▁honest	-6634
▁intent	-6635
▁layers	-6636
▁memory	-6637
▁muslim	-6638
▁nation	-6639
▁nudism	-6640
▁pantyh	-6641
▁proced	-6642
▁prohib	-6643
▁quotas	-6644
▁reveal	-6645
▁spaced	-6646
▁stairs	-6647
▁stated	-6648
▁themed	-6649
▁traced	-6650
▁unions	-6651
▁wiggle	-6652
concrete	-6653
ificiary	-6654
▁Banning	-6655
▁CALLING	-6656
▁CLASSIC	-6657
▁CONCEAL	-6658
▁CONTENT	-6659
▁Channel	-6660
▁College	-6661
▁FLIRTED	-6662
▁Islamic	-6663
▁Muslims	-6664
▁NEPHEWS	-6665
▁Perhaps	-6666
▁Salazar	-6667
▁Sanders	-6668
▁Service	-6669
▁Special	-6670
▁TELLING	-6671
▁Turkish	-6672
▁USTREAM	-6673
▁achieve	-6674
▁appreci	-6675
▁arrives	-6676
▁avoided	-6677
▁banning	-6678
▁choices	-6679
▁complic	-6680
▁convers	-6681
▁convert	-6682
▁counsel	-6683
▁creeper	-6684
▁doubled	-6685
▁drastic	-6686
▁finance	-6687
▁fullest	-6688
▁gravity	-6689
▁handgun	-6690
▁happier	-6691
▁involve	-6692
▁legroom	-6693
▁library	-6694
▁offered	-6695
▁ongoing	-6696
▁perfect	-6697
▁prostit	-6698
▁qualify	-6699
▁quickly	-6700
▁radical	-6701
▁raising	-6702
▁removes	-6703
▁returns	-6704
▁settled	-6705
▁signing	-6706
▁tablets	-6707
▁testify	-6708
▁theoret	-6709
▁threats	-6710
▁titling	-6711
▁trubles	-6712
▁unknown	-6713
▁walking	-6714
EXTENDING	-6715
REATENING	-6716
TERPRETED	-6717
ackground	-6718
▁Adoption	-6719
▁DOWNLOAD	-6720
▁Discover	-6721
▁Football	-6722
▁GAMECATT	-6723
▁GORGEOUS	-6724
▁PHYSICAL	-6725
▁PROPERTY	-6726
▁accommod	-6727
▁arranged	-6728
▁boarding	-6729
▁cashback	-6730
▁conceive	-6731
▁consigue	-6732
▁consumer	-6733
▁disabled	-6734
▁discover	-6735
▁enforced	-6736
▁entirely	-6737
▁envelope	-6738
▁erection	-6739
▁expunged	-6740
▁grabbing	-6741
▁incurred	-6742
▁intimate	-6743
▁invitado	-6744
▁loosened	-6745
▁manacles	-6746
▁mentions	-6747
▁mistakes	-6748
▁passport	-6749
▁pokemons	-6750
▁reaching	-6751
▁realized	-6752
▁repaired	-6753
▁rotating	-6754
▁software	-6755
consensual	-6756
▁AEROADMIN	-6757
▁Basically	-6758
▁Conversly	-6759
▁LOOKALIKE	-6760
▁PaperHelp	-6761
▁President	-6762
▁THERAPIST	-6763
▁advertise	-6764
▁degrading	-6765
▁guarantee	-6766
▁pantyhose	-6767
▁pointless	-6768
▁potential	-6769
▁residents	-6770
▁threesome	-6771
▁witnesses	-6772
▁Déscargate	-6773
▁Sunglasses	-6774
▁advocating	-6775
▁categories	-6776
▁disclaimer	-6777
▁forfeiture	-6778
▁impossible	-6779
▁incredible	-6780
▁interprets	-6781
▁invitación	-6782
▁laundering	-6783
▁population	-6784
▁protesters	-6785
▁screenshot	-6786
▁settlement	-6787
▁sildenafil	-6788
▁Effectively	-6789
▁THREATENING	-6790
▁accusations	-6791
▁benificiary	-6792
▁emergencies	-6793
▁girlfriends	-6794
▁prohibiting	-6795
▁punctuation	-6796
▁respinsible	-6797
▁threatening	-6798
▁grandfathers	-6799
▁intimidation	-6800
▁legitimately	-6801
▁prostituting	-6802
▁prostitution	-6803
▁shortsighted	-6804
▁OVEREXTENDING	-6805
▁accommodation	-6806
▁certification	-6807
▁effectiveness	-6808
▁theoretically	-6809
▁MISINTERPRETED	-6810
▁reasonableness	-6811
Im	-6812
NN	-6813
PN	-6814
Pr	-6815
TM	-6816
To	-6817
UN	-6818
bl	-6819
cb	-6820
dc	-6821
ha	-6822
iấ	-6823
iệ	-6824
mh	-6825
uộ	-6826
Án	-6827
ái	-6828
ên	-6829
ăm	-6830
ươ	-6831
ườ	-6832
ại	-6833
ấn	-6834
ập	-6835
ẹp	-6836
ội	-6837
▁ả	-6838
.**	-6839
ART	-6840
BIR	-6841
But	-6842
Cli	-6843
Dun	-6844
Get	-6845
ICE	-6846
Log	-6847
OUP	-6848
Our	-6849
PPS	-6850
USE	-6851
aad	-6852
acf	-6853
bum	-6854
cdb	-6855
eac	-6856
ebd	-6857
fun	-6858
hia	-6859
iấy	-6860
iệu	-6861
lse	-6862
mit	-6863
nes	-6864
oun	-6865
oàn	-6866
reg	-6867
top	-6868
uda	-6869
uộc	-6870
àng	-6871
ình	-6872
▁Dự	-6873
▁Hà	-6874
▁LF	-6875
▁Mi	-6876
▁OH	-6877
▁PA	-6878
▁RN	-6879
▁Số	-6880
▁WA	-6881
▁Xc	-6882
▁cổ	-6883
▁hệ	-6884
▁nl	-6885
▁pp	-6886
▁số	-6887
▁tư	-6888
▁Án	-6889
ANCE	-6890
Coup	-6891
Logo	-6892
Well	-6893
aabc	-6894
abbe	-6895
addc	-6896
aked	-6897
amps	-6898
ator	-6899
bled	-6900
cbce	-6901
fair	-6902
from	-6903
ging	-6904
hold	-6905
ials	-6906
inds	-6907
lsea	-6908
mmmh	-6909
obal	-6910
omas	-6911
oper	-6912
otes	-6913
oved	-6914
page	-6915
pres	-6916
rams	-6917
rats	-6918
ried	-6919
safe	-6920
show	-6921
sing	-6922
umul	-6923
used	-6924
wery	-6925
west	-6926
ương	-6927
ường	-6928
▁CEE	-6929
▁CIA	-6930
▁CNN	-6931
▁Cam	-6932
▁Cor	-6933
▁Cầu	-6934
▁DOU	-6935
▁Est	-6936
▁Gam	-6937
▁NBA	-6938
▁Nam	-6939
▁Nor	-6940
▁Nội	-6941
▁apo	-6942
▁hum	-6943
▁kit	-6944
▁luc	-6945
▁mod	-6946
▁năm	-6947
▁ram	-6948
▁tại	-6949
▁tập	-6950
▁vấn	-6951
▁yhe	-6952
▁đầu	-6953
▁đẹp	-6954
▁ảnh	-6955
-----	-6956
BIRDS	-6957
CAUSE	-6958
Color	-6959
Dunia	-6960
Image	-6961
acfdf	-6962
adelp	-6963
attle	-6964
bdaad	-6965
cedde	-6966
ceedc	-6967
cture	-6968
eneva	-6969
icate	-6970
iment	-6971
itchy	-6972
lines	-6973
orcer	-6974
place	-6975
posal	-6976
quent	-6977
rable	-6978
rfore	-6979
ualte	-6980
urate	-6981
uters	-6982
▁$,,,	-6983
▁---.	-6984
▁ABLE	-6985
▁Cash	-6986
▁City	-6987
▁Cong	-6988
▁Công	-6989
▁DROP	-6990
▁Data	-6991
▁EPPS	-6992
▁Giấy	-6993
▁HOME	-6994
▁Hình	-6995
▁Judy	-6996
▁Lang	-6997
▁Leic	-6998
▁Liên	-6999
▁Look	-7000
▁MADE	-7001
▁Mask	-7002
▁Path	-7003
▁Phil	-7004
▁Pike	-7005
▁Rush	-7006
▁Star	-7007
▁Thái	-7008
▁Trần	-7009
▁Tông	-7010
▁Việt	-7011
▁WHAT	-7012
▁decl	-7013
▁dose	-7014
▁educ	-7015
▁fees	-7016
▁grou	-7017
▁hirt	-7018
▁hiệu	-7019
▁hàng	-7020
▁king	-7021
▁okay	-7022
▁owed	-7023
▁phần	-7024
▁plea	-7025
▁seve	-7026
▁skip	-7027
▁stum	-7028
▁sung	-7029
▁tend	-7030
▁thin	-7031
▁đoàn	-7032
Banner	-7033
Coupon	-7034
STREAM	-7035
aabebd	-7036
aughty	-7037
eacfef	-7038
ousing	-7039
rimand	-7040
▁Alert	-7041
▁Asian	-7042
▁BANDS	-7043
▁Cover	-7044
▁Glock	-7045
▁Graph	-7046
▁Judge	-7047
▁Mmmmh	-7048
▁PRICE	-7049
▁PROMO	-7050
▁Rapid	-7051
▁Shame	-7052
▁Sound	-7053
▁THEIR	-7054
▁Write	-7055
▁Xcode	-7056
▁album	-7057
▁banks	-7058
▁bunch	-7059
▁capac	-7060
▁didnt	-7061
▁dudes	-7062
▁duing	-7063
▁eyegl	-7064
▁focal	-7065
▁group	-7066
▁guide	-7067
▁horse	-7068
▁kinda	-7069
▁light	-7070
▁logos	-7071
▁naked	-7072
▁newly	-7073
▁ought	-7074
▁proud	-7075
▁quiet	-7076
▁shirt	-7077
▁stays	-7078
▁thuộc	-7079
▁tough	-7080
▁wrist	-7081
▁đường	-7082
veloper	-7083
▁Access	-7084
▁Adjust	-7085
▁Better	-7086
▁Coming	-7087
▁DOUBLE	-7088
▁Gamuda	-7089
▁Geneva	-7090
▁Middle	-7091
▁SHOULD	-7092
▁Status	-7093
▁Thương	-7094
▁Upvote	-7095
▁artist	-7096
▁caster	-7097
▁cooper	-7098
▁detail	-7099
▁eludes	-7100
▁harmed	-7101
▁herbal	-7102
▁incest	-7103
▁indeed	-7104
▁insane	-7105
▁instru	-7106
▁laying	-7107
▁lovely	-7108
▁orders	-7109
▁rather	-7110
▁solved	-7111
▁stamps	-7112
▁tastes	-7113
▁temple	-7114
▁thrown	-7115
▁topics	-7116
▁travel	-7117
▁unfair	-7118
▁writer	-7119
Clipping	-7120
abbecbce	-7121
adelphia	-7122
ographic	-7123
▁BECAUSE	-7124
▁Brewery	-7125
▁Chelsea	-7126
▁Factory	-7127
▁Further	-7128
▁Gardens	-7129
▁Hotline	-7130
▁Masking	-7131
▁Nations	-7132
▁Perfect	-7133
▁Rapists	-7134
▁Removed	-7135
▁Seattle	-7136
▁Workers	-7137
▁abusers	-7138
▁accumul	-7139
▁blocked	-7140
▁builder	-7141
▁cheater	-7142
▁concise	-7143
▁cursing	-7144
▁discern	-7145
▁ecualte	-7146
▁forcing	-7147
▁glitchy	-7148
▁improve	-7149
▁partial	-7150
▁primary	-7151
▁ramific	-7152
▁reminds	-7153
▁schools	-7154
▁seconds	-7155
▁tourist	-7156
▁towards	-7157
▁warning	-7158
Protected	-7159
addcbdaad	-7160
cdbaabebd	-7161
ographics	-7162
▁Graphics	-7163
▁Training	-7164
▁accurate	-7165
▁adjuster	-7166
▁apointed	-7167
▁capacity	-7168
▁clipping	-7169
▁designer	-7170
▁distress	-7171
▁donating	-7172
▁feedback	-7173
▁graphics	-7174
▁harmless	-7175
▁inforcer	-7176
▁medicals	-7177
▁neighbor	-7178
▁officers	-7179
▁original	-7180
▁positive	-7181
▁programs	-7182
▁secretly	-7183
▁severely	-7184
▁stranger	-7185
▁themself	-7186
▁therfore	-7187
▁withhold	-7188
Background	-7189
▁Computers	-7190
▁Leicester	-7191
▁Overnight	-7192
▁Posession	-7193
▁Shameless	-7194
▁Southwest	-7195
▁appointed	-7196
▁associate	-7197
▁complicit	-7198
▁computers	-7199
▁conscious	-7200
▁converted	-7201
▁discounts	-7202
▁everytime	-7203
▁excellent	-7204
▁existence	-7205
▁extension	-7206
▁finalized	-7207
▁graphical	-7208
▁livesport	-7209
▁lucrative	-7210
▁necessary	-7211
▁procedure	-7212
▁reprimand	-7213
▁sentiment	-7214
CouponDunia	-7215
▁Adjustment	-7216
▁Convention	-7217
▁Correction	-7218
▁Simulation	-7219
▁downloaded	-7220
▁eyeglasses	-7221
▁foundation	-7222
▁suggesting	-7223
▁sunglasses	-7224
............	-7225
▁accordingly	-7226
▁collections	-7227
▁individuals	-7228
▁infographic	-7229
▁nationality	-7230
▁potentially	-7231
abbecbceceedc	-7232
addcbdaadaabc	-7233
▁Compensation	-7234
▁Infographics	-7235
▁Philadelphia	-7236
▁conversation	-7237
▁discriminate	-7238
▁instructions	-7239
▁mysteriously	-7240
▁technicality	-7241
cdbaabebdcedde	-7242
▁ramifications	-7243
▁discrimination	-7244
▁FreeCouponDunia	-7245
-$	-7246
An	-7247
BU	-7248
CL	-7249
DD	-7250
Dx	-7251
EG	-7252
EW	-7253
FR	-7254
HO	-7255
Nv	-7256
TI	-7257
fy	-7258
gu	-7259
ja	-7260
rd	-7261
sk	-7262
yl	-7263
▁~	-7264
.).	-7265
ARY	-7266
CLU	-7267
EGU	-7268
ERI	-7269
FRN	-7270
ICK	-7271
NDA	-7272
OOO	-7273
RIO	-7274
SPN	-7275
UYS	-7276
aks	-7277
auc	-7278
axy	-7279
bie	-7280
bps	-7281
dol	-7282
eNv	-7283
erP	-7284
ird	-7285
jul	-7286
kel	-7287
ldn	-7288
med	-7289
ora	-7290
ulp	-7291
une	-7292
▁$/	-7293
▁(,	-7294
▁AM	-7295
▁Dw	-7296
▁FC	-7297
▁Ge	-7298
▁Mr	-7299
▁XD	-7300
▁ge	-7301
▁gh	-7302
▁sd	-7303
▁wu	-7304
!!!*	-7305
")).	-7306
-$,,	-7307
BUNY	-7308
BeIN	-7309
CING	-7310
Code	-7311
DDIT	-7312
Free	-7313
GEND	-7314
Guru	-7315
IZON	-7316
NDYC	-7317
ORTS	-7318
OTES	-7319
WITH	-7320
acco	-7321
ache	-7322
adem	-7323
adox	-7324
amin	-7325
amma	-7326
anja	-7327
arka	-7328
auth	-7329
blow	-7330
fest	-7331
gage	-7332
guru	-7333
hanc	-7334
hery	-7335
igil	-7336
nati	-7337
nual	-7338
oops	-7339
pcsk	-7340
ptag	-7341
race	-7342
reon	-7343
resh	-7344
side	-7345
sted	-7346
ugal	-7347
umed	-7348
▁Aff	-7349
▁Aut	-7350
▁BBC	-7351
▁Fee	-7352
▁Gen	-7353
▁HOT	-7354
▁Hay	-7355
▁IMF	-7356
▁ITV	-7357
▁Ink	-7358
▁Lam	-7359
▁NOT	-7360
▁Obt	-7361
▁PXQ	-7362
▁SPA	-7363
▁USE	-7364
▁cow	-7365
▁dys	-7366
▁ear	-7367
▁eur	-7368
▁gal	-7369
▁lax	-7370
▁mAh	-7371
▁psy	-7372
▁sla	-7373
▁uns	-7374
▁unw	-7375
▁wen	-7376
▁zom	-7377
ERIES	-7378
HONDA	-7379
OOOOO	-7380
OUPON	-7381
PROVE	-7382
RETTI	-7383
anked	-7384
antis	-7385
ashed	-7386
atmap	-7387
avily	-7388
based	-7389
boxed	-7390
comic	-7391
eNvDx	-7392
elect	-7393
ellow	-7394
etime	-7395
guise	-7396
ifies	-7397
incin	-7398
india	-7399
intos	-7400
ional	-7401
login	-7402
manda	-7403
offic	-7404
orker	-7405
ounge	-7406
ppler	-7407
riate	-7408
shore	-7409
super	-7410
userP	-7411
votes	-7412
▁ACLU	-7413
▁Bond	-7414
▁Duty	-7415
▁ESPN	-7416
▁EURO	-7417
▁Firm	-7418
▁GUYS	-7419
▁Girl	-7420
▁Hate	-7421
▁NAME	-7422
▁NEWS	-7423
▁NICK	-7424
▁Roma	-7425
▁SEAT	-7426
▁SNOO	-7427
▁Same	-7428
▁Stud	-7429
▁Such	-7430
▁Supp	-7431
▁UBER	-7432
▁User	-7433
▁Very	-7434
▁amut	-7435
▁bred	-7436
▁conn	-7437
▁dept	-7438
▁desi	-7439
▁east	-7440
▁four	-7441
▁hide	-7442
▁hive	-7443
▁iffy	-7444
▁jung	-7445
▁kbps	-7446
▁limb	-7447
▁loan	-7448
▁mach	-7449
▁magn	-7450
▁meme	-7451
▁mort	-7452
▁pony	-7453
▁pulp	-7454
▁puts	-7455
▁sens	-7456
▁size	-7457
▁song	-7458
BUNYUN	-7459
Lahore	-7460
NDYCAR	-7461
REDDIT	-7462
ampion	-7463
ection	-7464
iansue	-7465
iented	-7466
osedly	-7467
points	-7468
rastru	-7469
stance	-7470
▁Banks	-7471
▁Brace	-7472
▁Bynes	-7473
▁Erect	-7474
▁Intel	-7475
▁LITER	-7476
▁MARIO	-7477
▁Maker	-7478
▁Mydol	-7479
▁Night	-7480
▁Porto	-7481
▁START	-7482
▁Sorry	-7483
▁Techn	-7484
▁Trust	-7485
▁Xanax	-7486
▁abuse	-7487
▁apple	-7488
▁began	-7489
▁bitco	-7490
▁decre	-7491
▁dpcsk	-7492
▁erect	-7493
▁films	-7494
▁gamma	-7495
▁ganja	-7496
▁ghost	-7497
▁giver	-7498
▁greys	-7499
▁gross	-7500
▁hacks	-7501
▁hoops	-7502
▁hopes	-7503
▁knees	-7504
▁knife	-7505
▁lamin	-7506
▁peasy	-7507
▁phase	-7508
▁setup	-7509
▁spare	-7510
▁toler	-7511
▁unfit	-7512
▁users	-7513
▁vigil	-7514
▁wrote	-7515
▁wuldn	-7516
▁xanax	-7517
Another	-7518
ENGLISH	-7519
MENTARY	-7520
YouTube	-7521
ateGuru	-7522
auchery	-7523
blowing	-7524
hancers	-7525
ignment	-7526
ization	-7527
legally	-7528
pending	-7529
utorial	-7530
▁$,-$,,	-7531
▁Academ	-7532
▁Amanda	-7533
▁Annual	-7534
▁CHANCE	-7535
▁COUPON	-7536
▁Cincin	-7537
▁Dwarka	-7538
▁Global	-7539
▁LEGEND	-7540
▁Lahore	-7541
▁Legend	-7542
▁Mintos	-7543
▁Obtain	-7544
▁PXQFRN	-7545
▁QUOTES	-7546
▁RACING	-7547
▁Refund	-7548
▁SERIES	-7549
▁Wheels	-7550
▁attend	-7551
▁brings	-7552
▁builds	-7553
▁cartel	-7554
▁carton	-7555
▁clever	-7556
▁comply	-7557
▁deeply	-7558
▁drakel	-7559
▁driver	-7560
▁dysfun	-7561
▁entity	-7562
▁expire	-7563
▁fellow	-7564
▁galaxy	-7565
▁ganked	-7566
▁growth	-7567
▁handed	-7568
▁humans	-7569
▁labour	-7570
▁miller	-7571
▁minded	-7572
▁picked	-7573
▁pledge	-7574
▁resume	-7575
▁salary	-7576
▁unsafe	-7577
▁waived	-7578
▁wither	-7579
▁zombie	-7580
illindia	-7581
presumed	-7582
romotion	-7583
ropriate	-7584
▁Account	-7585
▁Affairs	-7586
▁Bondora	-7587
▁CSGOPOT	-7588
▁FASTEST	-7589
▁Hayward	-7590
▁IMPROVE	-7591
▁INDYCAR	-7592
▁Modchat	-7593
▁Reality	-7594
▁SPOOOOO	-7595
▁Trading	-7596
▁VERIZON	-7597
▁Weapons	-7598
▁bottles	-7599
▁charger	-7600
▁classes	-7601
▁credits	-7602
▁creeped	-7603
▁doppler	-7604
▁further	-7605
▁heatmap	-7606
▁heavily	-7607
▁helping	-7608
▁housing	-7609
▁interns	-7610
▁jungler	-7611
▁lending	-7612
▁paradox	-7613
▁patreon	-7614
▁playing	-7615
▁profile	-7616
▁refresh	-7617
▁reprodu	-7618
▁retards	-7619
▁routine	-7620
▁satisfy	-7621
▁serials	-7622
▁servant	-7623
▁slavery	-7624
▁stepped	-7625
▁tonight	-7626
▁trusted	-7627
▁unboxed	-7628
▁updated	-7629
WITHHONDA	-7630
ertaining	-7631
frontpage	-7632
juliansue	-7633
▁ANDRETTI	-7634
▁Carolina	-7635
▁Complain	-7636
▁Congrats	-7637
▁Disguise	-7638
▁Erectile	-7639
▁Supplies	-7640
▁accepted	-7641
▁battling	-7642
▁champion	-7643
▁coworker	-7644
▁deposits	-7645
▁diplomas	-7646
▁drugging	-7647
▁feminist	-7648
▁freetime	-7649
▁frequent	-7650
▁grouptag	-7651
▁invested	-7652
▁jeopardy	-7653
▁karambit	-7654
▁language	-7655
▁multiply	-7656
▁offshore	-7657
▁oriented	-7658
▁outdated	-7659
▁penalize	-7660
▁repealed	-7661
▁stealing	-7662
▁stumbled	-7663
▁supplies	-7664
▁thinkers	-7665
▁training	-7666
changeable	-7667
officially	-7668
▁Appending	-7669
▁LITERALLY	-7670
▁Marketing	-7671
▁Recording	-7672
▁Streaming	-7673
▁desirable	-7674
▁determine	-7675
▁enhancers	-7676
▁erections	-7677
▁forgetful	-7678
▁headlines	-7679
▁infrastru	-7680
▁landlords	-7681
▁magnitude	-7682
▁overwatch	-7683
▁prohibits	-7684
▁purchased	-7685
▁qualifies	-7686
▁reachable	-7687
▁searching	-7688
▁sensitive	-7689
▁tolerance	-7690
▁untreated	-7691
▁violently	-7692
▁COMMENTARY	-7693
▁CSGOPOTPRO	-7694
▁Cigarettes	-7695
▁Cincinnati	-7696
▁EstateGuru	-7697
▁NICKBUNYUN	-7698
▁Starpoints	-7699
▁Technology	-7700
▁accumulate	-7701
▁actionable	-7702
▁cigarettes	-7703
▁confidence	-7704
▁debauchery	-7705
▁department	-7706
▁discounted	-7707
▁estateguru	-7708
▁fellowship	-7709
▁guaranteed	-7710
▁laminating	-7711
▁personally	-7712
▁positioned	-7713
▁programmed	-7714
▁recordings	-7715
▁suggestion	-7716
▁vigilantis	-7717
romotionCode	-7718
▁Accessories	-7719
▁Furthermore	-7720
▁IMPROVEMENT	-7721
▁SPOOOOOORTS	-7722
▁appreciated	-7723
▁assumptions	-7724
▁consumption	-7725
▁convictions	-7726
▁cooperating	-7727
▁departments	-7728
▁drakelounge	-7729
▁dysfunction	-7730
▁educational	-7731
▁eligibility	-7732
▁informative	-7733
▁interessted	-7734
▁investments	-7735
▁marketplace	-7736
▁possibility	-7737
▁recommended	-7738
▁scholarship	-7739
▁suggestible	-7740
▁accidentally	-7741
▁entertaining	-7742
▁improvements	-7743
▁informations	-7744
▁registration	-7745
▁reproduction	-7746
▁satisfaction	-7747
▁RACEWITHHONDA	-7748
▁dpcskillindia	-7749
▁infrastructure	-7750
▁interchangeable	-7751
'.	-7752
BB	-7753
BT	-7754
De	-7755
RC	-7756
RU	-7757
YT	-7758
fb	-7759
lu	-7760
wk	-7761
za	-7762
zy	-7763
ANS	-7764
ASH	-7765
BBW	-7766
BSC	-7767
EWV	-7768
Guy	-7769
Hon	-7770
RUF	-7771
Way	-7772
XQw	-7773
ags	-7774
apt	-7775
bdd	-7776
bff	-7777
cif	-7778
cpc	-7779
igi	-7780
job	-7781
loe	-7782
lus	-7783
mck	-7784
pet	-7785
sam	-7786
sis	-7787
van	-7788
yle	-7789
▁>(	-7790
▁Ag	-7791
▁DT	-7792
▁EX	-7793
▁Ed	-7794
▁HA	-7795
▁Sn	-7796
▁bb	-7797
▁iv	-7798
...?	-7799
AWAY	-7800
Hung	-7801
ICRC	-7802
Port	-7803
Pure	-7804
RIBE	-7805
aile	-7806
aman	-7807
auce	-7808
baby	-7809
chen	-7810
hand	-7811
heth	-7812
kBBW	-7813
lson	-7814
mark	-7815
medi	-7816
olrd	-7817
onus	-7818
oose	-7819
oost	-7820
oten	-7821
pair	-7822
rill	-7823
rock	-7824
ssay	-7825
supp	-7826
▁Ali	-7827
▁Bit	-7828
▁Cup	-7829
▁Guc	-7830
▁Hil	-7831
▁Mem	-7832
▁Mex	-7833
▁Ned	-7834
▁Ske	-7835
▁Was	-7836
▁Web	-7837
▁fit	-7838
▁non	-7839
▁row	-7840
▁tob	-7841
▁tur	-7842
adays	-7843
ailed	-7844
akers	-7845
anish	-7846
bdddf	-7847
ching	-7848
cifer	-7849
eanwh	-7850
estig	-7851
grade	-7852
heard	-7853
inker	-7854
istle	-7855
letal	-7856
mckia	-7857
ooted	-7858
orary	-7859
orsTM	-7860
overs	-7861
retly	-7862
sting	-7863
ubmit	-7864
utors	-7865
vered	-7866
▁APKM	-7867
▁Digi	-7868
▁Diss	-7869
▁HHon	-7870
▁Home	-7871
▁Lamb	-7872
▁Paid	-7873
▁QUIZ	-7874
▁Read	-7875
▁SOME	-7876
▁Sick	-7877
▁Term	-7878
▁Tune	-7879
▁Zero	-7880
▁ange	-7881
▁bump	-7882
▁capt	-7883
▁clar	-7884
▁dark	-7885
▁debt	-7886
▁dial	-7887
▁gems	-7888
▁haha	-7889
▁lamp	-7890
▁lots	-7891
▁ping	-7892
▁pray	-7893
▁stim	-7894
▁util	-7895
▁wade	-7896
▁weed	-7897
▁wenn	-7898
RUFEWV	-7899
apable	-7900
apital	-7901
bfffef	-7902
common	-7903
edding	-7904
erfeit	-7905
hentic	-7906
iences	-7907
medium	-7908
orated	-7909
review	-7910
source	-7911
washed	-7912
▁AmWay	-7913
▁Bonus	-7914
▁CLANS	-7915
▁CLASH	-7916
▁Cards	-7917
▁Chloe	-7918
▁EXACT	-7919
▁Essay	-7920
▁FOUND	-7921
▁IICRC	-7922
▁Music	-7923
▁NBXQw	-7924
▁SUBSC	-7925
▁Solut	-7926
▁Testo	-7927
▁Weaks	-7928
▁Wolrd	-7929
▁allah	-7930
▁alter	-7931
▁appDe	-7932
▁debts	-7933
▁drone	-7934
▁funds	-7935
▁heres	-7936
▁holog	-7937
▁inapp	-7938
▁influ	-7939
▁joing	-7940
▁realy	-7941
▁recru	-7942
▁stare	-7943
▁thats	-7944
▁uncon	-7945
Hungary	-7946
because	-7947
entific	-7948
hethred	-7949
married	-7950
olution	-7951
samreen	-7952
starter	-7953
▁Course	-7954
▁Hilton	-7955
▁IPhone	-7956
▁Meanwh	-7957
▁Mexico	-7958
▁Points	-7959
▁Record	-7960
▁Resume	-7961
▁Review	-7962
▁Rooted	-7963
▁Screen	-7964
▁Simply	-7965
▁Skrill	-7966
▁States	-7967
▁Thesis	-7968
▁bloody	-7969
▁carpet	-7970
▁consol	-7971
▁detain	-7972
▁guilty	-7973
▁hoping	-7974
▁kmckia	-7975
▁member	-7976
▁payout	-7977
▁safest	-7978
▁seemed	-7979
▁tshirt	-7980
▁twenty	-7981
Portugal	-7982
campaign	-7983
ditional	-7984
ertation	-7985
estigate	-7986
igarette	-7987
lsonrock	-7988
unlikely	-7989
▁APKPure	-7990
▁Bitcoin	-7991
▁Despair	-7992
▁Devices	-7993
▁Editing	-7994
▁Firstly	-7995
▁Medical	-7996
▁blowers	-7997
▁blowjob	-7998
▁bumping	-7999
▁checkit	-8000
▁contain	-8001
▁decisis	-8002
▁denials	-8003
▁forever	-8004
▁hitting	-8005
▁mentors	-8006
▁proving	-8007
▁regards	-8008
▁rolling	-8009
▁several	-8010
▁strange	-8011
▁subject	-8012
▁tobacco	-8013
▁utilize	-8014
▁whistle	-8015
▁yelling	-8016
▁Academic	-8017
▁Feedback	-8018
▁GIVEAWAY	-8019
▁Guccifer	-8020
▁Hospital	-8021
▁Proposal	-8022
▁Research	-8023
▁Secondly	-8024
▁Secretly	-8025
▁Sickness	-8026
▁Skeletal	-8027
▁Tutorial	-8028
▁approved	-8029
▁boosting	-8030
▁captchar	-8031
▁decently	-8032
▁legality	-8033
▁machines	-8034
▁mortgage	-8035
▁previous	-8036
▁products	-8037
▁progress	-8038
▁resubmit	-8039
▁scandals	-8040
▁touching	-8041
▁unwanted	-8042
▁verified	-8043
supposedly	-8044
veloperGuy	-8045
▁APKMirror	-8046
▁Authentic	-8047
▁HHonorsTM	-8048
▁Instagram	-8049
▁Meanwhile	-8050
▁Questions	-8051
▁SUBSCRIBE	-8052
▁Solutions	-8053
▁Weaksauce	-8054
▁attendant	-8055
▁catchable	-8056
▁certified	-8057
▁cigarette	-8058
▁criminals	-8059
▁decreases	-8060
▁downvotes	-8061
▁holograms	-8062
▁hopefully	-8063
▁increased	-8064
▁marriages	-8065
▁materials	-8066
▁mentality	-8067
▁receiving	-8068
▁residence	-8069
▁sentences	-8070
▁surprised	-8071
▁temporary	-8072
bfffefbdddf	-8073
stitutional	-8074
▁Assignment	-8075
▁Coursework	-8076
▁Membership	-8077
▁Plagiarism	-8078
▁accountant	-8079
▁bitcoinker	-8080
▁connection	-8081
▁crosswalks	-8082
▁discussion	-8083
▁medicating	-8084
▁processing	-8085
▁recruiting	-8086
▁scientific	-8087
▁unthethred	-8088
▁violations	-8089
▁NBXQwRUFEWV	-8090
▁application	-8091
▁brainwashed	-8092
▁carlsonrock	-8093
▁counterfeit	-8094
▁prosecutors	-8095
▁technicians	-8096
▁............	-8097
▁Dissertation	-8098
▁Presidential	-8099
▁jailbreakers	-8100
▁organization	-8101
▁inappropriate	-8102
▁reinvestigate	-8103
...............	-8104
................	-8105
▁appDeveloperGuy	-8106
:-	-8107
EO	-8108
KÉ	-8109
SI	-8110
YA	-8111
fs	-8112
iö	-8113
nv	-8114
uu	-8115
vl	-8116
xp	-8117
ün	-8118
EAT	-8119
Gen	-8120
ICO	-8121
ILM	-8122
ITI	-8123
ORE	-8124
RVE	-8125
___	-8126
abr	-8127
aly	-8128
arp	-8129
azi	-8130
bar	-8131
ckt	-8132
hro	-8133
ipz	-8134
iös	-8135
lay	-8136
lde	-8137
mat	-8138
nor	-8139
nvy	-8140
ooo	-8141
owd	-8142
pic	-8143
rol	-8144
vem	-8145
vex	-8146
yam	-8147
▁Ok	-8148
▁PS	-8149
▁RB	-8150
▁Sa	-8151
▁Sm	-8152
▁UC	-8153
▁YT	-8154
▁cL	-8155
▁gd	-8156
▁mp	-8157
▁pt	-8158
:|:-	-8159
Call	-8160
IDEO	-8161
PAID	-8162
Text	-8163
URAY	-8164
ague	-8165
alan	-8166
ania	-8167
ecut	-8168
gets	-8169
hack	-8170
hroh	-8171
ibly	-8172
iens	-8173
iete	-8174
logs	-8175
oons	-8176
rexp	-8177
rive	-8178
team	-8179
tful	-8180
will	-8181
▁BTC	-8182
▁CYA	-8183
▁Cat	-8184
▁DOI	-8185
▁HEY	-8186
▁Hit	-8187
▁IPW	-8188
▁Kik	-8189
▁LSD	-8190
▁Mün	-8191
▁NEW	-8192
▁NSW	-8193
▁NYC	-8194
▁Num	-8195
▁OFF	-8196
▁Out	-8197
▁Pet	-8198
▁Rel	-8199
▁SEX	-8200
▁Syl	-8201
▁TYT	-8202
▁Tru	-8203
▁Twe	-8204
▁URL	-8205
▁Unt	-8206
▁Ven	-8207
▁aff	-8208
▁bei	-8209
▁del	-8210
▁hes	-8211
▁ipa	-8212
▁lvl	-8213
▁ove	-8214
▁pap	-8215
▁von	-8216
,....	-8217
Boost	-8218
Calls	-8219
Datab	-8220
Erase	-8221
Flash	-8222
Forum	-8223
ITIVE	-8224
KÉMON	-8225
RVEYS	-8226
SIBLE	-8227
VERED	-8228
achel	-8229
ampsh	-8230
atian	-8231
boten	-8232
elbar	-8233
elics	-8234
elles	-8235
entak	-8236
ersen	-8237
ipzig	-8238
itere	-8239
obook	-8240
otely	-8241
randa	-8242
rench	-8243
rings	-8244
stery	-8245
thats	-8246
vanas	-8247
weckt	-8248
▁Book	-8249
▁Evex	-8250
▁FILM	-8251
▁Fair	-8252
▁HAVE	-8253
▁Mans	-8254
▁Myth	-8255
▁None	-8256
▁PACK	-8257
▁Porn	-8258
▁RICO	-8259
▁Reli	-8260
▁SHIT	-8261
▁Self	-8262
▁Snap	-8263
▁Spec	-8264
▁Tags	-8265
▁VOTE	-8266
▁View	-8267
▁Vote	-8268
▁WANT	-8269
▁____	-8270
▁apps	-8271
▁athe	-8272
▁boob	-8273
▁conj	-8274
▁dein	-8275
▁dich	-8276
▁fabr	-8277
▁fill	-8278
▁gene	-8279
▁lead	-8280
▁loss	-8281
▁nazi	-8282
▁njoy	-8283
▁noch	-8284
▁pace	-8285
▁pool	-8286
▁schn	-8287
▁sequ	-8288
▁sort	-8289
▁view	-8290
▁vinc	-8291
▁vote	-8292
▁wird	-8293
Market	-8294
alaman	-8295
arpest	-8296
donald	-8297
lihood	-8298
pended	-8299
ported	-8300
ressed	-8301
stitum	-8302
vember	-8303
▁Affil	-8304
▁Alien	-8305
▁Biete	-8306
▁Categ	-8307
▁Cheap	-8308
▁Forum	-8309
▁Italy	-8310
▁PHONE	-8311
▁PRIZE	-8312
▁Payza	-8313
▁Phone	-8314
▁Shyam	-8315
▁Skype	-8316
▁Space	-8317
▁Stock	-8318
▁Trick	-8319
▁VIDEO	-8320
▁cLick	-8321
▁coats	-8322
▁craze	-8323
▁crowd	-8324
▁fruit	-8325
▁hangs	-8326
▁hmmmm	-8327
▁melde	-8328
▁preis	-8329
▁terms	-8330
▁unter	-8331
▁vlogs	-8332
,......	-8333
picable	-8334
regator	-8335
stances	-8336
ustries	-8337
▁Artful	-8338
▁BLURAY	-8339
▁Bayern	-8340
▁Dances	-8341
▁Decent	-8342
▁Execut	-8343
▁Hampsh	-8344
▁League	-8345
▁Number	-8346
▁OFFERS	-8347
▁PRIZES	-8348
▁Paypal	-8349
▁Pentak	-8350
▁Rachel	-8351
▁Raynor	-8352
▁Safety	-8353
▁Scream	-8354
▁Tweedy	-8355
▁Venice	-8356
▁aliens	-8357
▁compat	-8358
▁debunk	-8359
▁excuse	-8360
▁failed	-8361
▁fragen	-8362
▁french	-8363
▁fruity	-8364
▁genome	-8365
▁ghosts	-8366
▁makers	-8367
▁minute	-8368
▁papers	-8369
▁patter	-8370
▁pranks	-8371
▁review	-8372
▁ruhroh	-8373
▁seriös	-8374
▁spouse	-8375
▁squirt	-8376
▁sweety	-8377
▁unlock	-8378
▁worden	-8379
igorated	-8380
raceable	-8381
▁ANDROID	-8382
▁CONTACT	-8383
▁Capital	-8384
▁Control	-8385
▁FUNDING	-8386
▁General	-8387
▁Leipzig	-8388
▁Looking	-8389
▁Miranda	-8390
▁Mystery	-8391
▁München	-8392
▁POKÉMON	-8393
▁Planner	-8394
▁SURVEYS	-8395
▁Shoping	-8396
▁Truated	-8397
▁Trustes	-8398
▁Wedding	-8399
▁Whether	-8400
▁cinemat	-8401
▁clarify	-8402
▁covered	-8403
▁diamond	-8404
▁endless	-8405
▁enjoyed	-8406
▁geweckt	-8407
▁leaving	-8408
▁offence	-8409
▁offense	-8410
▁outside	-8411
▁overexp	-8412
▁psyched	-8413
▁removal	-8414
▁targets	-8415
▁turrent	-8416
▁upgrade	-8417
▁verhand	-8418
▁vincent	-8419
▁wanting	-8420
▁warrant	-8421
▁weitere	-8422
Databases	-8423
▁Accounts	-8424
▁Bookmark	-8425
▁Category	-8426
▁Complete	-8427
▁Croatian	-8428
▁Language	-8429
▁November	-8430
▁POSITIVE	-8431
▁POSSIBLE	-8432
▁Petersen	-8433
▁Reliable	-8434
▁Religion	-8435
▁Scandals	-8436
▁Snapchat	-8437
▁Storenvy	-8438
▁Sylvanas	-8439
▁TestoGen	-8440
▁Verified	-8441
▁Watching	-8442
▁advances	-8443
▁asreddit	-8444
▁atheists	-8445
▁declared	-8446
▁deported	-8447
▁director	-8448
▁earrings	-8449
▁examples	-8450
▁launched	-8451
▁nowadays	-8452
▁register	-8453
▁remotely	-8454
▁sharpest	-8455
▁students	-8456
▁unsolved	-8457
▁Affiliate	-8458
▁Beautiful	-8459
▁Hampshire	-8460
▁Shyamalan	-8461
▁angeboten	-8462
▁conjuring	-8463
▁fabricate	-8464
▁financing	-8465
▁generally	-8466
▁incapable	-8467
▁influence	-8468
▁interesse	-8469
▁leftovers	-8470
▁photobook	-8471
▁schnelles	-8472
▁sequenced	-8473
▁substance	-8474
▁superteam	-8475
▁suspended	-8476
MarketCalls	-8477
▁Collection	-8478
▁Executives	-8479
▁Industries	-8480
▁accounting	-8481
▁aggregator	-8482
▁challenges	-8483
▁conviction	-8484
▁despicable	-8485
▁kidnapping	-8486
▁livelihood	-8487
▁revolution	-8488
▁Description	-8489
▁SURVEYSPAID	-8490
▁Untraceable	-8491
▁competition	-8492
▁limitations	-8493
▁permanently	-8494
▁superstitum	-8495
▁traditional	-8496
▁Manslaughter	-8497
▁Specifically	-8498
▁psychedelics	-8499
▁specializing	-8500
▁verhandelbar	-8501
▁circumstances	-8502
▁compatibility	-8503
▁consolidation	-8504
▁overexpressed	-8505
▁reinvigorated	-8506
▁cinematography	-8507
%^	-8508
EK	-8509
FL	-8510
GN	-8511
GY	-8512
IB	-8513
PO	-8514
TA	-8515
XT	-8516
ky	-8517
▁–	-8518
%^*	-8519
'''	-8520
+++	-8521
ALD	-8522
Are	-8523
DON	-8524
LOW	-8525
NIB	-8526
OTS	-8527
UMP	-8528
USH	-8529
ama	-8530
hen	-8531
imm	-8532
lry	-8533
oth	-8534
pro	-8535
▁!)	-8536
▁-)	-8537
▁::	-8538
▁;'	-8539
▁HQ	-8540
▁Lo	-8541
▁SC	-8542
▁Tv	-8543
▁jb	-8544
▁pc	-8545
ATRI	-8546
Down	-8547
EDES	-8548
ERGY	-8549
ERTA	-8550
INGS	-8551
ISIT	-8552
King	-8553
POST	-8554
VOTE	-8555
agne	-8556
auty	-8557
aver	-8558
cast	-8559
cipe	-8560
ease	-8561
easy	-8562
edio	-8563
fers	-8564
lleg	-8565
oobs	-8566
orge	-8567
orks	-8568
oubt	-8569
reet	-8570
rian	-8571
rict	-8572
sApp	-8573
umbl	-8574
uned	-8575
urch	-8576
what	-8577
wood	-8578
|---	-8579
▁APP	-8580
▁ARS	-8581
▁Ant	-8582
▁Big	-8583
▁DON	-8584
▁Dec	-8585
▁Esc	-8586
▁KEK	-8587
▁Lit	-8588
▁Low	-8589
▁Mel	-8590
▁NFL	-8591
▁PAY	-8592
▁Pod	-8593
▁STI	-8594
▁SUB	-8595
▁UFC	-8596
▁Ult	-8597
▁VIP	-8598
▁ele	-8599
▁eng	-8600
▁jud	-8601
▁mac	-8602
▁ped	-8603
▁pet	-8604
▁sup	-8605
▁yup	-8606
ENTIP	-8607
ITING	-8608
NIBAL	-8609
Quest	-8610
There	-8611
azhan	-8612
cloud	-8613
ensus	-8614
ision	-8615
▁&%^*	-8616
▁''''	-8617
▁CREA	-8618
▁DELI	-8619
▁FEAT	-8620
▁HIGH	-8621
▁Hard	-8622
▁Hear	-8623
▁Host	-8624
▁Kind	-8625
▁NEXT	-8626
▁Rave	-8627
▁Rice	-8628
▁Size	-8629
▁THEM	-8630
▁Vers	-8631
▁Wife	-8632
▁avid	-8633
▁camp	-8634
▁diet	-8635
▁feat	-8636
▁lego	-8637
▁mand	-8638
▁ring	-8639
▁shag	-8640
▁sway	-8641
▁xbox	-8642
ERTAIN	-8643
gether	-8644
iantic	-8645
lusive	-8646
ources	-8647
▁Again	-8648
▁Alleg	-8649
▁BELOW	-8650
▁BLESS	-8651
▁Blind	-8652
▁Boons	-8653
▁Cross	-8654
▁Doesn	-8655
▁Doubt	-8656
▁Drive	-8657
▁FLUSH	-8658
▁FRESH	-8659
▁Geico	-8660
▁House	-8661
▁Offer	-8662
▁Outta	-8663
▁PATRI	-8664
▁Speed	-8665
▁THERE	-8666
▁TRUMP	-8667
▁VISIT	-8668
▁Women	-8669
▁Works	-8670
▁below	-8671
▁crazy	-8672
▁delhi	-8673
▁drive	-8674
▁goood	-8675
▁haven	-8676
▁loads	-8677
▁loans	-8678
▁names	-8679
▁perky	-8680
▁pract	-8681
▁rough	-8682
▁snaps	-8683
▁style	-8684
▁truck	-8685
▁tumbl	-8686
▁tuned	-8687
▁vedio	-8688
▁youll	-8689
esional	-8690
ilation	-8691
▁Browse	-8692
▁CENTIP	-8693
▁DONALD	-8694
▁ENERGY	-8695
▁Kickin	-8696
▁Lowest	-8697
▁Models	-8698
▁Prices	-8699
▁Reason	-8700
▁Satisf	-8701
▁Sensus	-8702
▁Single	-8703
▁Sounds	-8704
▁Trying	-8705
▁UPVOTE	-8706
▁Unless	-8707
▁adding	-8708
▁backup	-8709
▁beauty	-8710
▁beaver	-8711
▁bloobs	-8712
▁bought	-8713
▁browse	-8714
▁choose	-8715
▁contin	-8716
▁divine	-8717
▁filter	-8718
▁finder	-8719
▁girles	-8720
▁ignore	-8721
▁leaked	-8722
▁shower	-8723
▁stable	-8724
Download	-8725
atically	-8726
entially	-8727
▁Allowed	-8728
▁America	-8729
▁Awesome	-8730
▁CERTAIN	-8731
▁CREATED	-8732
▁EDITING	-8733
▁Escorts	-8734
▁Fastest	-8735
▁Friends	-8736
▁Heywood	-8737
▁Hosting	-8738
▁Melania	-8739
▁Niantic	-8740
▁Profile	-8741
▁Promote	-8742
▁Provide	-8743
▁Ravelry	-8744
▁Version	-8745
▁clearly	-8746
▁current	-8747
▁extract	-8748
▁factors	-8749
▁joining	-8750
▁naughty	-8751
▁package	-8752
▁treason	-8753
▁CANNIBAL	-8754
▁Friendly	-8755
▁Karazhan	-8756
▁PATRIOTS	-8757
▁Personal	-8758
▁SHITPOST	-8759
▁STICKING	-8760
▁Straight	-8761
▁Ultimate	-8762
▁WhatsApp	-8763
▁campagne	-8764
▁featured	-8765
▁includes	-8766
▁listings	-8767
▁patterns	-8768
▁possibly	-8769
▁sections	-8770
▁together	-8771
▁violates	-8772
▁Allegiant	-8773
▁BLESSINGS	-8774
▁DELIVERED	-8775
▁exclusive	-8776
▁feminists	-8777
▁kidnapped	-8778
▁knowledge	-8779
▁launching	-8780
▁resulting	-8781
▁straining	-8782
▁technique	-8783
▁transfers	-8784
▁underused	-8785
cholarships	-8786
▁CENTIPEDES	-8787
▁Reasonable	-8788
▁University	-8789
▁consensual	-8790
▁motivation	-8791
▁overweight	-8792
▁Compilation	-8793
▁Considerate	-8794
▁Experiences	-8795
▁immigration	-8796
▁kickstarter	-8797
▁profesional	-8798
▁Satisfaction	-8799
▁Scholarships	-8800
▁International	-8801
▁automatically	-8802
Bl	-8803
Cr	-8804
LP	-8805
La	-8806
OS	-8807
PU	-8808
Uq	-8809
aj	-8810
aw	-8811
bn	-8812
ek	-8813
fc	-8814
gc	-8815
hh	-8816
oh	-8817
▁@	-8818
):-	-8819
ADA	-8820
CKG	-8821
DAY	-8822
Den	-8823
Fun	-8824
ORK	-8825
Tun	-8826
UqI	-8827
YES	-8828
afe	-8829
eav	-8830
erk	-8831
iab	-8832
ida	-8833
ips	-8834
isc	-8835
mas	-8836
urf	-8837
uty	-8838
vid	-8839
▁FR	-8840
▁ah	-8841
Toll	-8842
ajor	-8843
arah	-8844
ario	-8845
atyp	-8846
bion	-8847
esty	-8848
etes	-8849
loss	-8850
odel	-8851
onio	-8852
owed	-8853
pool	-8854
romw	-8855
rsbn	-8856
step	-8857
ural	-8858
vels	-8859
week	-8860
zeed	-8861
▁Bes	-8862
▁GPU	-8863
▁IGN	-8864
▁WOW	-8865
▁bra	-8866
▁cup	-8867
▁enc	-8868
▁fps	-8869
▁mfc	-8870
▁pee	-8871
▁sem	-8872
▁sig	-8873
▁upd	-8874
▁vot	-8875
AMMON	-8876
Blood	-8877
Crime	-8878
Funny	-8879
KEMON	-8880
Tunes	-8881
armed	-8882
gcUqI	-8883
glass	-8884
iring	-8885
ortes	-8886
pects	-8887
shots	-8888
story	-8889
urden	-8890
vesty	-8891
vidia	-8892
▁Aint	-8893
▁Asia	-8894
▁Bein	-8895
▁Bout	-8896
▁Cafe	-8897
▁Come	-8898
▁DDen	-8899
▁FUCK	-8900
▁File	-8901
▁Flor	-8902
▁Icel	-8903
▁Misc	-8904
▁Nice	-8905
▁Rape	-8906
▁Rare	-8907
▁Show	-8908
▁Sure	-8909
▁Tele	-8910
▁Trap	-8911
▁Vend	-8912
▁WORK	-8913
▁West	-8914
▁York	-8915
▁bark	-8916
▁bill	-8917
▁fant	-8918
▁hype	-8919
▁jerk	-8920
▁junk	-8921
▁meet	-8922
▁near	-8923
▁owns	-8924
▁plan	-8925
▁rank	-8926
▁scen	-8927
▁sket	-8928
▁tatt	-8929
▁tons	-8930
atypus	-8931
donate	-8932
eavors	-8933
ective	-8934
ermine	-8935
ginger	-8936
leting	-8937
rsorry	-8938
▁BACKG	-8939
▁Bound	-8940
▁Bromw	-8941
▁Could	-8942
▁Liver	-8943
▁Phent	-8944
▁Purch	-8945
▁Sarah	-8946
▁Smith	-8947
▁TODAY	-8948
▁Trank	-8949
▁Which	-8950
▁anime	-8951
▁feeds	-8952
▁hilar	-8953
▁major	-8954
▁memes	-8955
▁multi	-8956
▁obese	-8957
▁plane	-8958
▁ready	-8959
▁reset	-8960
▁shape	-8961
▁skins	-8962
▁smurf	-8963
▁spray	-8964
▁towns	-8965
▁views	-8966
channel	-8967
dalaman	-8968
estrian	-8969
iabetes	-8970
natives	-8971
naughty	-8972
odeling	-8973
▁Albion	-8974
▁August	-8975
▁Butter	-8976
▁CANADA	-8977
▁Detect	-8978
▁IGNORE	-8979
▁Knives	-8980
▁Makers	-8981
▁Mirror	-8982
▁Myself	-8983
▁Nvidia	-8984
▁ahahah	-8985
▁assist	-8986
▁browed	-8987
▁button	-8988
▁coming	-8989
▁editor	-8990
▁gaming	-8991
▁iTunes	-8992
▁income	-8993
▁master	-8994
▁moment	-8995
▁novels	-8996
▁pedoph	-8997
▁routes	-8998
▁series	-8999
▁sports	-9000
pression	-9001
venience	-9002
▁Antonio	-9003
▁Besides	-9004
▁Florida	-9005
▁Iceland	-9006
▁POKEMON	-9007
▁Podcast	-9008
▁Spanish	-9009
▁Vendors	-9010
▁WORKING	-9011
▁abusive	-9012
▁airport	-9013
▁article	-9014
▁dieting	-9015
▁disease	-9016
▁leading	-9017
▁magical	-9018
▁moments	-9019
▁offline	-9020
▁privacy	-9021
▁restart	-9022
▁startup	-9023
▁tattoos	-9024
Bloodzeed	-9025
obviously	-9026
▁Anything	-9027
▁Bromwich	-9028
▁Decision	-9029
▁Deportes	-9030
▁Purchase	-9031
▁Students	-9032
▁describe	-9033
▁election	-9034
▁employee	-9035
▁platypus	-9036
▁remaking	-9037
▁somewhat	-9038
▁streamSD	-9039
▁supposed	-9040
▁travesty	-9041
▁Detective	-9042
▁Liverpool	-9043
▁beautyful	-9044
▁buildings	-9045
▁campaigns	-9046
▁dangerous	-9047
▁detective	-9048
▁endeavors	-9049
▁hilarious	-9050
▁pedophile	-9051
▁timeglass	-9052
▁BACKGAMMON	-9053
▁Soundcloud	-9054
▁classified	-9055
▁mysterious	-9056
▁pedestrian	-9057
▁remodeling	-9058
▁trickshots	-9059
▁underrated	-9060
▁Phentermine	-9061
▁essentially	-9062
▁tumblrsorry	-9063
naughtyginger	-9064
▁alternatives	-9065
KS	-9066
MA	-9067
OK	-9068
ba	-9069
eg	-9070
ju	-9071
qq	-9072
▁{	-9073
And	-9074
Eng	-9075
IOS	-9076
Not	-9077
Res	-9078
SGO	-9079
afc	-9080
ana	-9081
bdf	-9082
chy	-9083
cil	-9084
edu	-9085
erv	-9086
etf	-9087
eys	-9088
fbe	-9089
gry	-9090
ket	-9091
koy	-9092
law	-9093
lia	-9094
lix	-9095
mao	-9096
oes	-9097
oke	-9098
okh	-9099
ops	-9100
ouc	-9101
par	-9102
ted	-9103
toa	-9104
▁("	-9105
▁(/	-9106
▁CR	-9107
▁Uh	-9108
▁Ut	-9109
▁ir	-9110
▁mg	-9111
adba	-9112
apon	-9113
byle	-9114
ency	-9115
erat	-9116
etsy	-9117
fbfb	-9118
free	-9119
heme	-9120
icit	-9121
immy	-9122
izes	-9123
kins	-9124
koyd	-9125
land	-9126
made	-9127
onym	-9128
ored	-9129
read	-9130
reck	-9131
rees	-9132
rier	-9133
rupt	-9134
swer	-9135
unge	-9136
xual	-9137
yond	-9138
▁Apk	-9139
▁Ban	-9140
▁Det	-9141
▁Esp	-9142
▁GOP	-9143
▁HIS	-9144
▁MiB	-9145
▁NBC	-9146
▁NLP	-9147
▁STE	-9148
▁Sad	-9149
▁Top	-9150
▁aid	-9151
▁bal	-9152
▁dev	-9153
▁dig	-9154
▁fig	-9155
▁fis	-9156
▁foc	-9157
▁gay	-9158
▁lar	-9159
▁mal	-9160
▁mid	-9161
▁mis	-9162
▁nic	-9163
:|:-:	-9164
adbdf	-9165
arily	-9166
atman	-9167
atter	-9168
chyqq	-9169
elebr	-9170
enage	-9171
ening	-9172
epend	-9173
ialis	-9174
imokh	-9175
indow	-9176
itten	-9177
oting	-9178
ounds	-9179
▁Auss	-9180
▁Comm	-9181
▁Ever	-9182
▁Imay	-9183
▁Joke	-9184
▁Lets	-9185
▁Name	-9186
▁Netf	-9187
▁Phen	-9188
▁boss	-9189
▁cann	-9190
▁cell	-9191
▁clim	-9192
▁coke	-9193
▁curb	-9194
▁cute	-9195
▁dedu	-9196
▁doct	-9197
▁duty	-9198
▁etsy	-9199
▁gang	-9200
▁loud	-9201
▁mile	-9202
▁mill	-9203
▁piss	-9204
▁pros	-9205
▁rule	-9206
▁sapp	-9207
▁semi	-9208
▁sist	-9209
▁tape	-9210
▁vain	-9211
▁vouc	-9212
▁wide	-9213
acelet	-9214
afffbe	-9215
antage	-9216
atched	-9217
itions	-9218
ortant	-9219
profit	-9220
twitch	-9221
▁Jones	-9222
▁Mitch	-9223
▁Point	-9224
▁Somet	-9225
▁Steve	-9226
▁Telia	-9227
▁angry	-9228
▁areas	-9229
▁chats	-9230
▁const	-9231
▁corru	-9232
▁damag	-9233
▁files	-9234
▁ignor	-9235
▁image	-9236
▁indic	-9237
▁meant	-9238
▁owned	-9239
▁petty	-9240
▁plant	-9241
▁prior	-9242
▁screw	-9243
▁separ	-9244
▁space	-9245
▁tooth	-9246
▁totoa	-9247
▁trail	-9248
Android	-9249
English	-9250
Furious	-9251
ambling	-9252
anderas	-9253
erators	-9254
fbfbafc	-9255
isional	-9256
ketball	-9257
▁:-:|:-	-9258
▁Answer	-9259
▁Arabic	-9260
▁Batman	-9261
▁Danish	-9262
▁Forget	-9263
▁George	-9264
▁Kindly	-9265
▁Parent	-9266
▁accent	-9267
▁advise	-9268
▁afford	-9269
▁animes	-9270
▁anonym	-9271
▁barely	-9272
▁beyond	-9273
▁bright	-9274
▁celebr	-9275
▁courts	-9276
▁delete	-9277
▁except	-9278
▁highly	-9279
▁intend	-9280
▁locked	-9281
▁mirror	-9282
▁modern	-9283
▁needed	-9284
▁proven	-9285
▁recipe	-9286
▁scheme	-9287
▁showed	-9288
▁ticket	-9289
▁update	-9290
▁upvote	-9291
▁verify	-9292
▁weapon	-9293
▁window	-9294
bylekoyd	-9295
imokhles	-9296
▁Article	-9297
▁Aussies	-9298
▁Carrier	-9299
▁Netflix	-9300
▁Russian	-9301
▁Showbox	-9302
▁Student	-9303
▁Swatter	-9304
▁attacks	-9305
▁beliefs	-9306
▁brought	-9307
▁clinton	-9308
▁council	-9309
▁decided	-9310
▁declare	-9311
▁defined	-9312
▁deposit	-9313
▁diploma	-9314
▁drugged	-9315
▁execute	-9316
▁filming	-9317
▁grandpa	-9318
▁graphic	-9319
▁highway	-9320
▁holding	-9321
▁parking	-9322
▁reflect	-9323
▁replays	-9324
▁respect	-9325
▁section	-9326
▁sisters	-9327
▁sources	-9328
▁supreme	-9329
▁teenage	-9330
▁written	-9331
adbdfadba	-9332
ependence	-9333
▁Banderas	-9334
▁accident	-9335
▁artistic	-9336
▁attacked	-9337
▁bankrupt	-9338
▁bracelet	-9339
▁claiming	-9340
▁diabetes	-9341
▁distance	-9342
▁majority	-9343
▁personal	-9344
▁recourse	-9345
▁relevant	-9346
▁sapphire	-9347
▁scenario	-9348
▁vouchers	-9349
▁Christmas	-9350
▁Community	-9351
▁Pentakill	-9352
▁admitting	-9353
▁advantage	-9354
▁authority	-9355
▁following	-9356
▁important	-9357
▁instances	-9358
▁justified	-9359
▁sketchyqq	-9360
▁Pentakills	-9361
▁basketball	-9362
▁chargeback	-9363
▁constantly	-9364
▁corruption	-9365
▁moderators	-9366
▁:-:|:-:|:-:	-9367
▁celebrities	-9368
▁imagination	-9369
▁pornography	-9370
▁provisional	-9371
▁trespassing	-9372
afffbefbfbafc	-9373
▁Independence	-9374
▁presentation	-9375
▁understanding	-9376
!|	-9377
.,	-9378
?'	-9379
AI	-9380
BC	-9381
Do	-9382
Fi	-9383
NA	-9384
RA	-9385
SE	-9386
Th	-9387
UE	-9388
ea	-9389
ef	-9390
fa	-9391
iş	-9392
oe	-9393
ph	-9394
uz	-9395
ym	-9396
ANG	-9397
Art	-9398
IRE	-9399
OTH	-9400
ago	-9401
aze	-9402
cht	-9403
din	-9404
een	-9405
eni	-9406
eto	-9407
fam	-9408
fic	-9409
fly	-9410
iff	-9411
iju	-9412
iki	-9413
ilt	-9414
ium	-9415
izz	-9416
ken	-9417
kes	-9418
man	-9419
mov	-9420
mur	-9421
nix	-9422
omp	-9423
omy	-9424
pen	-9425
peu	-9426
rad	-9427
rit	-9428
riv	-9429
sue	-9430
tis	-9431
uch	-9432
ulu	-9433
zie	-9434
ếng	-9435
▁/,	-9436
▁Ah	-9437
▁BU	-9438
▁Dr	-9439
▁GF	-9440
▁Gu	-9441
▁NY	-9442
▁OB	-9443
▁SM	-9444
▁SS	-9445
▁WC	-9446
▁bf	-9447
▁bi	-9448
▁tv	-9449
AMES	-9450
ANAL	-9451
CSGO	-9452
Form	-9453
Heal	-9454
Hell	-9455
ITCH	-9456
KEYS	-9457
THER	-9458
ants	-9459
apes	-9460
aste	-9461
atur	-9462
cate	-9463
cket	-9464
emed	-9465
endy	-9466
ercy	-9467
erhe	-9468
file	-9469
ibil	-9470
igin	-9471
ippi	-9472
iser	-9473
ixie	-9474
jury	-9475
lict	-9476
like	-9477
llie	-9478
lper	-9479
mean	-9480
ners	-9481
ocol	-9482
odes	-9483
omic	-9484
oner	-9485
orch	-9486
osis	-9487
ours	-9488
perm	-9489
ppeu	-9490
qour	-9491
rine	-9492
some	-9493
syou	-9494
text	-9495
thTM	-9496
thal	-9497
urer	-9498
uuuu	-9499
veys	-9500
wire	-9501
year	-9502
ylum	-9503
ysis	-9504
▁-->	-9505
▁Arr	-9506
▁Bud	-9507
▁CPS	-9508
▁DIE	-9509
▁DNR	-9510
▁EMS	-9511
▁Fil	-9512
▁Him	-9513
▁Hip	-9514
▁IED	-9515
▁Jan	-9516
▁Jon	-9517
▁Lol	-9518
▁MGM	-9519
▁MMA	-9520
▁OPS	-9521
▁SEE	-9522
▁San	-9523
▁Sid	-9524
▁Sil	-9525
▁Sub	-9526
▁TBC	-9527
▁Tor	-9528
▁Umm	-9529
▁WEE	-9530
▁Wel	-9531
▁Yea	-9532
▁Yem	-9533
▁Yep	-9534
▁anx	-9535
▁civ	-9536
▁cps	-9537
▁das	-9538
▁deg	-9539
▁dry	-9540
▁eff	-9541
▁exs	-9542
▁fac	-9543
▁ist	-9544
▁lip	-9545
▁mad	-9546
▁nar	-9547
▁nor	-9548
▁oak	-9549
▁obs	-9550
▁opp	-9551
▁ops	-9552
▁pic	-9553
▁pon	-9554
▁rac	-9555
▁rly	-9556
▁sen	-9557
▁siz	-9558
▁typ	-9559
▁vol	-9560
Hello	-9561
achen	-9562
agate	-9563
agree	-9564
aling	-9565
anced	-9566
arden	-9567
aries	-9568
asure	-9569
athan	-9570
atory	-9571
block	-9572
check	-9573
click	-9574
could	-9575
doing	-9576
glect	-9577
gment	-9578
hered	-9579
hoods	-9580
icago	-9581
ician	-9582
icide	-9583
icity	-9584
illed	-9585
ivity	-9586
maris	-9587
orrow	-9588
orses	-9589
oster	-9590
paste	-9591
point	-9592
quiet	-9593
recht	-9594
shold	-9595
stand	-9596
sters	-9597
uding	-9598
uming	-9599
using	-9600
views	-9601
welry	-9602
▁BOOP	-9603
▁Beat	-9604
▁Cent	-9605
▁Coin	-9606
▁	-9607
e	-9608
t	-9609
o	-9610
a	-9611
i	-9612
n	-9613
s	-9614
r	-9615
h	-9616
l	-9617
u	-9618
d	-9619
y	-9620
c	-9621
m	-9622
g	-9623
f	-9624
p	-9625
w	-9626
.	-9627
b	-9628
v	-9629
k	-9630
I	-9631
,	-9632
'	-9633
T	-9634
S	-9635
A	-9636
E	-9637
O	-9638
H	-9639
D	-9640
*	-9641
C	-9642
N	-9643
M	-9644
P	-9645
x	-9646
W	-9647
-	-9648
Y	-9649
!	-9650
R	-9651
L	-9652
G	-9653
:	-9654
B	-9655
F	-9656
j	-9657
?	-9658
"	-9659
(	-9660
U	-9661
)	-9662
|	-9663
/	-9664
q	-9665
>	-9666
z	-9667
V	-9668
K	-9669
$	-9670
J	-9671
Q	-9672
^	-9673
%	-9674
=	-9675
;	-9676
&	-9677
_	-9678
’	-9679
X	-9680
+	-9681
<	-9682
€	-9683
Z	-9684
ỗ	-9685
ử	-9686
®	-9687
é	-9688
ı	-9689
đ	-9690
ầ	-9691
]	-9692
[	-9693
à	-9694
ຈ	-9695
ệ	-9696
ư	-9697
ó	-9698
ô	-9699
ấ	-9700
ố	-9701
ộ	-9702
#	-9703
£	-9704
͜	-9705
ل	-9706
༼	-9707
༽	-9708
ç	-9709
İ	-9710
‪	-9711
ạ	-9712
ậ	-9713
Á	-9714
á	-9715
ê	-9716
ì	-9717
ă	-9718
ơ	-9719
ả	-9720
ẹ	-9721
ổ	-9722
ờ	-9723
ự	-9724
~	-9725
ü	-9726
É	-9727
ö	-9728
–	-9729
@	-9730
{	-9731
ş	-9732
ế	-9733
\	-9734
Ǝ	-9735
ễ	-9736
₤	-9737
